/**
  ******************************************************************************
  * @file    mod_data_params.c
  * @author  AST Embedded Analytics Research Platform
  * @date    2026-03-26T23:59:58+0100
  * @brief   AI Tool Automatic Code Generator for Embedded NN computing
  ******************************************************************************
  * Copyright (c) 2026 STMicroelectronics.
  * All rights reserved.
  *
  * This software is licensed under terms that can be found in the LICENSE file
  * in the root directory of this software component.
  * If no LICENSE file comes with this software, it is provided AS-IS.
  ******************************************************************************
  */

#include "mod_data_params.h"


/**  Activations Section  ****************************************************/
ai_handle g_mod_activations_table[1 + 2] = {
  AI_HANDLE_PTR(AI_MAGIC_MARKER),
  AI_HANDLE_PTR(NULL),
  AI_HANDLE_PTR(AI_MAGIC_MARKER),
};




/**  Weights Section  ********************************************************/
AI_ALIGNED(32)
const ai_u64 s_mod_weights_array_u64[8643] = {
  0xbd0c900b3c603b7dU, 0x3ea2ccfd3ec23ca4U, 0xbdfd338c3e99d33aU, 0x3ed2ef1c3cac1ce1U,
  0x3e62ec0b3ed59b66U, 0x3dc6128cbcacfe17U, 0xbd6be86cbe78ce56U, 0x3d0fcae53eb8d2ffU,
  0xbedda89b3c08f73fU, 0x3bdc60273d8649c9U, 0x3d71e6583d3a65b7U, 0x3cdceb74bf177c7eU,
  0x3e9824663c7398f3U, 0xbd144f343e0e506aU, 0x3ddc800a3da7c6e5U, 0xbc679bc0bd811cffU,
  0x3eabb28b3ed4cc2dU, 0xbbb097a43e72e268U, 0x3d28237e3b872a51U, 0x3e9e06c03e574407U,
  0x3ef6b6483eb59f0cU, 0xbe69be053e1c9d1eU, 0xbc852408be8c7060U, 0x3c5029b9bd35f9b2U,
  0x3ecf21643bdeba43U, 0xbebc22f33f0f4b21U, 0xbd361164be7029e6U, 0x3e95e7d7bd0f2517U,
  0x3ee62f1ebe80cc6fU, 0xbe1cc7f93ed806b5U, 0xbcbce9a13cb8a87eU, 0x3eebe9953ec3844fU,
  0xbe4679a5bb2a7645U, 0x3e22d4eebed75682U, 0xbea2a54a3e5a5150U, 0x3edd4315befc80dcU,
  0xbd78744abea37552U, 0x3de41a23bccc4040U, 0xbde02f303cf12dbeU, 0x3e23a121bed9d7b8U,
  0x3c89785bbd70a628U, 0x3d890cf23db5da1aU, 0xbf40ce2b3ee95668U, 0xbdbd9cbd3ef9f8ccU,
  0xbeaa1958bdc0a58fU, 0xbe3cf96b3dec3ed2U, 0x3dbd4160bf007756U, 0x3d84cae6bd292517U,
  0xbe8f166bbd26014dU, 0x3e8d5efebed154d1U, 0xbe329f123e6cb315U, 0xbf03b57abdb9a719U,
  0xbbc25d1ebc394b33U, 0x3bb00e02bcbd12a5U, 0x3edb6be03c32c1bbU, 0x3c521f3fbcb60ec0U,
  0xbdb9def6be918543U, 0xbc35349a3ec87238U, 0xbdd3564a3bc6a2fdU, 0x3eeb0952bd31b828U,
  0xbd2d9da63cf18e57U, 0x3edc94cd3eb558b8U, 0x3dd6d4ac3c97f0d0U, 0x3e727a7fbf2c2480U,
  0xbeef29cdbd733679U, 0xbe9335253f2d8e10U, 0xbb860f3e3d85731fU, 0x3c432f16bcde8c6eU,
  0x3ecbf0c0bcf9419dU, 0xbc033b323ee560e5U, 0x3ed14bfcbf344391U, 0x3d577c6f3d049487U,
  0x3e0a04cebeb9f48fU, 0xbe2efad5bf037c37U, 0x3dd804883e061610U, 0x3efe4da03d895c3aU,
  0xbe9320913e86cb9aU, 0x3da8ae61bd8e5958U, 0x3f1a8cb6bdd56c76U, 0xbbda23ba3cbe1145U,
  0x3e23aa10be886cb6U, 0x3ed2280e3ed5c328U, 0x3dd874ad3e332dc0U, 0xbe5598d7bd3a42bfU,
  0xbec8be71bec3e88dU, 0xbf3fe23c3e2df069U, 0xbe89cbc0bde2268fU, 0xbc22edf23d499453U,
  0xbeca33d1bd44706cU, 0xbe332c49bebf6199U, 0xbddc075e3dde5dfeU, 0x3ed1bf633f09ca72U,
  0xbf0172063e3df4e7U, 0x3d25a6773f1c359bU, 0xbdf217263df8e669U, 0x3d6fff7bbdbd1af9U,
  0x3ebaed823ec984d6U, 0x3ec933ea3e4e71fcU, 0xbec6108fbe75a218U, 0xbc181704bd81af3bU,
  0x3c3065babcb7b473U, 0xbd64e9ebbe31d27fU, 0xbe8d0ccd3ee82701U, 0xbe82c0443e809575U,
  0xbe524813beb0ae68U, 0xbe38c4a73f1549dbU, 0x3e86e5293eba7a1dU, 0xbc930cc1bdec4465U,
  0xbdf5e1773c811612U, 0x3edc6f4dbd22754dU, 0xbc9d6334bc2b4a00U, 0x3e5fa5763d32a100U,
  0x3f3331e53e8d2ba4U, 0x3c115dc4beee4aadU, 0xbb6bff81bc685d4bU, 0x3d4e1d093c04b1d0U,
  0x3d78d8abbf0497bdU, 0x3d95d7ee3c374bdcU, 0xbef807c4bd5984f1U, 0xbc5c4e9c3da11251U,
  0xbd193c523c4d74cfU, 0x3ef3f8c03ec5e4ecU, 0xbe90fc9e3b9723d3U, 0xbe394cbe3f20606bU,
  0x3dd300c33bc92dbfU, 0x3e93b4193e8cbd18U, 0xbe824f013e958717U, 0x3e943138bc923bedU,
  0x3e6d5b52bf347fc7U, 0x3d9bfff63e442425U, 0x3f1144e5befc8473U, 0xbe817463bed819f6U,
  0xbc255952bd30de2dU, 0xbe6d0bd33e1fc3d1U, 0x3e8c9cb1befe39a3U, 0xbea98af1be72087bU,
  0xbe6531ecbe903b1cU, 0x3c13579abe57c9c1U, 0xbe3d315db9bd5ef1U, 0x3ee01fa1bdf2d559U,
  0xbefeb1b73f3123e4U, 0xbcccd906bdfd9673U, 0xbee8aebcbcc723cbU, 0xbed2b6a33f031babU,
  0xbc121fb6bc11bd23U, 0x3e535eb93cc63192U, 0xbdd79666bf413dc0U, 0x3e3b3aa2bb8443ecU,
  0xbf398460be6a98b9U, 0x3cf078e8be2d5ffcU, 0xbdb4b1ef3d747b9fU, 0x3ef0027e3ec6286aU,
  0x3e4aa9e3bd3109d8U, 0xbf04914fbeefd447U, 0xbc92eb3abda6bf54U, 0x3ee550cebeef11e7U,
  0x3eba34ee3ebb8d38U, 0xbc3150e9be1c3e0aU, 0xbebc52d83b126bdeU, 0x3ee39b9bbe103bd2U,
  0xbed9241bbf13fcdfU, 0xbee08815bf246ebcU, 0xbef0f281bf10c49dU, 0xbf34a11abefe257eU,
  0xbf1edb9cbed8b770U, 0xbea1d525bf13f4faU, 0xbd1dd02abf1975e5U, 0xbdf6145c3d075de1U,
  0x3ddc6ab4bf2ee842U, 0xbec97043bf050d5aU, 0xbf2baf5fbc385899U, 0xbf35c7ecbf11acb7U,
  0xbe85161abf0ce3f1U, 0xbf13b9a2bedd59adU, 0xbef2f8e83d9cf904U, 0x3ef19873be4fe384U,
  0x3ecb3994bebc0f2dU, 0x3e9820c8be5368acU, 0x3c3e7d59bf11ecf9U, 0xbf17c336beb9f31fU,
  0x3eaf1491bf2ddee3U, 0xbf22e24ebec83f6dU, 0xbed18340bf2ccc94U, 0xbf0053bfbefdd58bU,
  0xbe8dfc88bf2659a1U, 0xbeff76ffbea62a5eU, 0xbea1373bbd2c257aU, 0xbf2cf672bd7a1c2fU,
  0xbe9b2b53bf05e542U, 0xbf074ba3bf0e61b8U, 0xbe975192bf0f7ab3U, 0xbf2239d0be7318b4U,
  0xbe318adfbe0e1c56U, 0x3d936ab93ec9288eU, 0x3d0136223f0d98b9U, 0x3db7a65abe4eb9d1U,
  0x3db12319bf4b8cb6U, 0x3ec51dfb3f044200U, 0x3eb443273f251da7U, 0x3d725beb3dc583c2U,
  0x3e7a16fcbcedf6e3U, 0x3b96ba29be48d4d6U, 0x3df6386cbf35bd99U, 0x3de1092b3e671871U,
  0x3e8cbaf93e945cd7U, 0x3f14f1f1bf1b8d18U, 0xbf28b04d3e44dfb7U, 0xbf4ab6fbbf085df0U,
  0x3e6900ccbdc0d52cU, 0xbd53214fbfe36b97U, 0x3cc04985bed4a742U, 0x3e9b81adbd16ea1cU,
  0xbe8361cd3e7e976cU, 0x3e42db93be8b478eU, 0xbd6e8fafbd52af05U, 0xbdc042fc3d5676f5U,
  0x3dad48d03f612517U, 0x3ebb479cbf42f3b1U, 0x3e52acd83e82d688U, 0x3e2e0d5fbe996c7eU,
  0x3e937acd3e8396a3U, 0xbef250163edf0ecaU, 0xbf467a353edfc1b9U, 0x3e8b80ca3dde2ee2U,
  0xbdc7173abcbe3254U, 0xbfafc4033e6c5c33U, 0x3eebb5dcbf5fad92U, 0x3dd38264bdd825ddU,
  0x3d678a173e83ef63U, 0xbea8ddadbe8fce3dU, 0xbea235943e8eed6cU, 0x3c62b82dbe2c0164U,
  0xbf82b8363ccbfea4U, 0xbbc50048bfafee95U, 0x3d84a29cbe5e591dU, 0x3df7fc1c3e06c63fU,
  0xbf864ccfbd43b45eU, 0xbe7d77843ec9d2acU, 0xbdce5694bf5dd6f2U, 0xbd43c5283dc8514cU,
  0xbf42b0e4bdd4573cU, 0x3cedf68b3f01d26bU, 0xbbd03f293e18eae1U, 0xbe820e403d4f7300U,
  0x3da9b2a33d81c0dbU, 0x3e4ea0f1bd2f9d43U, 0x3eac979fbcd4a243U, 0xbf8a390cbf866e60U,
  0x3eff0969bedb7fa9U, 0xbe0a36683de3fffaU, 0x3d2b91a1bdb1b905U, 0x3ea3c7b63d2278bfU,
  0xbeeee88f3ecaaffeU, 0xbe4eaf9abe0bf178U, 0xbcd2842fbedbc37dU, 0x3de3519f3e665ef7U,
  0xbe15fd1dbf0e9530U, 0x3c90b583bd8dd2fbU, 0xbd5f7b57be65b4c8U, 0x3e545cf2bd803338U,
  0xbe7a0c6abd367786U, 0x3e79acd4bf03cb9cU, 0x3e5109e7be03680cU, 0xbd7736083df1de06U,
  0x3fc999e0bd449a32U, 0x3de374653bcedb9eU, 0xbe5677843e35047aU, 0xbf157756be1463e6U,
  0x3e5ca2dc3d14f505U, 0x3e8b27e13f0e6996U, 0x3dcb81ea3f22d4f6U, 0x3d96bd6b3e80c341U,
  0x3e5248533db0b95aU, 0x39ae5c96be2ed3e2U, 0x3e82d3aabdd6a131U, 0xbf8874e5bd668b3fU,
  0xbb0a6164bece1593U, 0xbdf3b5b53d3c7fcaU, 0x3ea3f9e33ee42db6U, 0x3d2943f73d92e7b4U,
  0xbec766453b80e00dU, 0xbe62f8303e6a54a2U, 0x3d0cd72dbe732837U, 0xbebd55013e27c07fU,
  0x3f041542bd61e66cU, 0xbf9ab52fbf2e639cU, 0x3d38ad91bda2afd3U, 0xbd82008abf058352U,
  0x3d8b47133ccc6ebaU, 0xbceab7f4be1147dcU, 0x3e6dcde7bedc32ebU, 0x3eacbef5bd5f07abU,
  0x3e1871eebf445e35U, 0xbf29a61f3ed7a680U, 0x3e096a14bf14900aU, 0xbd885483bdb3a40dU,
  0xbfa7b1cdbd8e628eU, 0xbcf56a16b704cba0U, 0xbd07416abcfeac49U, 0x3c8d0dd33e473b9cU,
  0xbefe78d3bf523446U, 0xbf21248a3dfae7a9U, 0x3e351d45bf0eefcaU, 0xbdc3623dbd06758dU,
  0xbf3787a23dd62e5eU, 0xbc6566c2be8e9f85U, 0xbe8ff1043e05929eU, 0xbebf58e6bc215486U,
  0x3d0372ad3df5c06aU, 0xbdf5e5fdbd8ae521U, 0x3e842ad63d164906U, 0xbc66dfe3bce7a832U,
  0x3d984910bf1df1adU, 0x3e5a38e8bced86efU, 0xbe7aef8ebf37b0ddU, 0x3db551e93e93bd95U,
  0xbe9c2f0d3e6cb00dU, 0xbe3ced4fbf4d46a7U, 0x3d4e5cffbf01303fU, 0x3d431377bf167604U,
  0xbf402fefbedc5c63U, 0x3e155c3f3e3a2e00U, 0x3dc5ef1d3dab56a8U, 0x3e9681d2bf1a5f05U,
  0x3e1b1ff33e2d5b33U, 0x3d899b9dbde9617bU, 0xbe19ad853de52628U, 0xbdb6ff0ebfaadaa1U,
  0xbf7894093c6e136aU, 0xbed9a05a3e56231bU, 0x3d5d3b83bf741ae5U, 0x3e16acfcbc9b9fe9U,
  0xbe4d9c1f3d99c12dU, 0x3e7948563e7ddd86U, 0xbf5a03ebbee0abf7U, 0xc00d46aabf3f7c2eU,
  0x3ab1eff7bf8cb4a8U, 0xbd60e1c8bfb9088cU, 0xbe240068bf640f69U, 0x3f054400bf665457U,
  0x3ba4c0b43d801a0dU, 0x3cb7a5ec3d99d6a0U, 0x3dbd1a4a3ea6859dU, 0x3d757ed73e4118afU,
  0xbd224cdf3e7bc034U, 0xbf1be714bf7764feU, 0xbe1b3974bf4284b2U, 0x3e440809bf1d2d2dU,
  0xbf5c60af3e9ddb21U, 0x3e02dd5c3e433da1U, 0x3c976cd33dea8a29U, 0xbd9153e3bf5bcd93U,
  0xbd4551bb3ea39b30U, 0x3ed6a7b93d775e21U, 0x3d8e2b69bdac65d7U, 0x3f4740e43e7d5571U,
  0x3d0827c9beae7b47U, 0xbf9959fdbdcda2fcU, 0xbe54c6a7bed2f08fU, 0x3d3edc91be2bc847U,
  0xbe7511da3e54d04eU, 0x3e106cbebe20e82cU, 0x3dfcf2033d3f7fb4U, 0xbee82d92bdbb871dU,
  0xbf9cbc6ebeeee913U, 0xbf149062bf2401f5U, 0xbdeee296bf45b44eU, 0x3e0798583bd425a0U,
  0xbec8e9ffbd89ffedU, 0xbf81ba5a3d9d105eU, 0xbec0ea423dba0833U, 0xbeaad5d73e421c4aU,
  0x3d1dc1733eba92afU, 0xbdd42ca1bf1cea8bU, 0x3db262e03eba1d66U, 0x3ba49d393d90dc39U,
  0x3ce4591dbecfbd07U, 0xbf5fbc8f3cc6c982U, 0x3bad39e7bf59729eU, 0xbf231838becf9783U,
  0xbf0968913dc7af1eU, 0x3e819d9bbf923d44U, 0x3d472be4bec7c372U, 0x3c0caa563cd630a2U,
  0x3d3aa64c3b9c0c57U, 0x3d1bdadbbe29fb58U, 0x3d802399bcf95942U, 0xbdeb2779bc07c4eeU,
  0xbe334dd1be6d24bdU, 0xbd945e9e3bb04e62U, 0x3ec27ebfbe1a906fU, 0xbecc808abdaeda39U,
  0xbf59e2f9bea64e16U, 0xbe7f30c73ead0ed1U, 0xbe13b68fbf4684d8U, 0xbdb92dbb3d40ffcaU,
  0x3d272937be9870dbU, 0xbec7e222bd79bc7fU, 0x3e817023be83fa1eU, 0xbbe1bf80bf3c0286U,
  0xbeea5e97bd3856f7U, 0xbdde098c3b64f4d4U, 0xbf5f2d0b3d56c1eeU, 0x3f3c29373bd60516U,
  0xbeea0f19bd594adaU, 0xbdf53ac7be63c00fU, 0x3e76abcc3c2e0a43U, 0x3e45b6783c7591f7U,
  0x3e923580be010bb2U, 0x3e3b1f2cbf1a246fU, 0xbf41edb4beebd58fU, 0xbe3d649dbe104c88U,
  0xbeaddf2f3e934539U, 0x3e1134063fa59f8eU, 0x3e7e43b5be0de244U, 0x3bba1f5ebf2d0210U,
  0xbf1daa2fbec2ae5fU, 0xbea1ac1dbcc672dbU, 0x3d8599cdbe7fdc9fU, 0xbf821436bf5b7807U,
  0xbdd45e4fbddfd2c8U, 0x3e8c9ba93f15d745U, 0x3e6ccee1bf53b872U, 0xbdba8462be6c38c7U,
  0xbea26335be573f49U, 0x3e16826dbe25e048U, 0x3df707d23e4545b0U, 0xbc82f2bd3df56597U,
  0x3ea12ad7bf2c8577U, 0xbf56d4203ef79753U, 0xbe934afd3c8ae5e5U, 0x3cac8576bd1e39b1U,
  0x3d9f2a6cbf4d265dU, 0x3e2cf5d0bd04080dU, 0xbf6d2e9dbc282948U, 0x3f5477ebbf5b9049U,
  0xbddec7a33d7ef1afU, 0xbced9d2a3e7545d5U, 0x3f2cd0eebfc71d06U, 0xbea2e622be1060e9U,
  0x3cbc9625bf1e7035U, 0x3e9cb6123c37319dU, 0x3da0daf0beb004e0U, 0xbcc2eb483e8ffc4dU,
  0xbf5aa52a3f0fa632U, 0x3e5de9e13aa6859dU, 0x3df0a9593d1c499eU, 0x3da65ad2bf114524U,
  0x3e02e27e3e9318c7U, 0x3e83d2a9bd6e2af3U, 0x3d9969063e4567a7U, 0x3f0740f03e6b1bd3U,
  0xbd6e205fbee79f52U, 0x3e4a0700bf9e1f88U, 0x3e4c681c3e923cf2U, 0xbefadea13d5af02dU,
  0xbf8bbda73e5d5bc9U, 0xbf8db5883d484351U, 0x3d351f883d6e4750U, 0x3dbf5060bd4ceaf7U,
  0xbcfeb0893ee32d8eU, 0xbba1059abf6d7efdU, 0xbed631a5becf7abcU, 0xbe9c382ebc9919e4U,
  0xbdb35c403da05b2eU, 0xbfc81b713cbcbe48U, 0x3deed973be6fb0ecU, 0xbf100b32be76056bU,
  0xbf6fd3653e32597cU, 0x3d8949963d3cad93U, 0xbfbcfa563f039949U, 0x3d96e3b03da1269cU,
  0x3dc62fc4bd0bc88cU, 0x3e087a19bdf1cb27U, 0xbed24ccb3d54bc5fU, 0x3d66de52bc8729dfU,
  0x3e3e3715bfa6f7d1U, 0xbee950313e24e7e1U, 0xbe8d5086bb976aedU, 0x3c5883f73eaba104U,
  0x3bd9dd6ebc8cd6c4U, 0xbdfc0a63be1907e8U, 0xbe19c8763d8fb5a8U, 0xbde0f21cbd03e105U,
  0x3d13c5bdbf5be3f1U, 0xbf83943cbf38efaaU, 0x3c608a2cbfa2d418U, 0xbf60b48cb90920acU,
  0x3d9c094ebc50e1faU, 0xbf4a1f35bb367d55U, 0xbd1b6522bf07f7daU, 0xbd5461bb3d605a4eU,
  0xbe1a64f1bf91888bU, 0xbfb32decbfb7ff67U, 0xbe0bc8513e008526U, 0x3dba0875bdf9ed66U,
  0x3d8a98f43d1fce8eU, 0x3dd30fb33eb17956U, 0x3d17cbc9be9e4c24U, 0x3db435143d20605dU,
  0x3e0479a43ca591a9U, 0xbdb08f2bbf2de0c6U, 0xbfce82b7bdc81210U, 0xbd98e0dfbe2d2558U,
  0x3d5f4ac0bfe58c71U, 0x3e6cd1b6be97ffa8U, 0xbf8908ae3e87c152U, 0xbe0b13333e341151U,
  0xbb969c9fbfc4c0a9U, 0x3e3faf183f08eac5U, 0x3c4ca33cbf979436U, 0xbd0b151e3da8a49dU,
  0xbd7230ad3e0a4459U, 0xbd922f3b3e54506bU, 0x3d8e07673d85e7d0U, 0x3ecd29d8bddafd4aU,
  0x3d98cb533da3820cU, 0xbe833c113e3faa2dU, 0xbd8bdc593ee354bbU, 0xbe83e0c2beae6f62U,
  0x3dd93e9a3d2a4745U, 0xbeaf9ae23da5a514U, 0x3d8e57e3bea404d0U, 0x3e283b693e2276bfU,
  0x3e2015973e69eee1U, 0x3f3559273e8d82e3U, 0xbecbb7d8be6cafa9U, 0xbe8d289abf9396a7U,
  0x3e4bc1553e090667U, 0xbdc370e6bf03f745U, 0x3d5921513ec58e74U, 0x3e9ccd423e33f256U,
  0xbecab6693df5e3c2U, 0x3d849d483e61bcb8U, 0x3f1e96883efeb129U, 0x3c2d4a34bdea0c5fU,
  0xbb8e23bb3f215d9cU, 0xbf8122fabed5bf16U, 0xbe1fc954bf06cc25U, 0x3e344086bf20b0e1U,
  0xbe8867723ebc7ad8U, 0x3d554f70bca8db84U, 0x3e3d6ae3bd62ff1bU, 0x3e48a5193d16086cU,
  0x3dc3453f3e2defc3U, 0xbcbd88d83dfab1e3U, 0x3d4e57cbbea9b239U, 0x3ed2a81fbb8229b2U,
  0x3ce8e4593ea1e912U, 0xbe5b070d3ecc1de9U, 0xbb47e6aebf36b6fbU, 0xbf364b503bb672bcU,
  0xbf2d97a1be08e7a7U, 0xbf34f6653d24b1ddU, 0x3e31262fbf915074U, 0x3e8e515dbc14d175U,
  0xbcb487d8bf37c453U, 0xbf202fab3d8018cfU, 0xbc7ee395bec957a5U, 0xc0246429bf8531a9U,
  0x3e4ce3fc3d633a3cU, 0xbda81fb0be381f82U, 0x3b3e6df7bf09a6f0U, 0x3f0040c03cb100b3U,
  0x3e1d7de63ded5126U, 0x3daf8dc03d88912eU, 0x3e886b293ed20e4eU, 0x3d845707bd816835U,
  0xbd167e38bf21bd64U, 0x3e30ec5abf5fc4ffU, 0xbf03e7913dfab363U, 0x3decc21d3c2bcdf5U,
  0xbd78d094bace4053U, 0xbd871db3bd06ff6fU, 0x3d27d520beeac469U, 0x3dd23ba3bd45970fU,
  0xbf8b56c3bfd4e60eU, 0x3d1f6e4c3c5181adU, 0x3de2377e3dba2b84U, 0xbef2ce54bfb85374U,
  0xbdff46a13d8e706dU, 0xbcaf99d03f08da43U, 0xbf06e1c93de25cadU, 0x3dea570abfa6c8e9U,
  0xbf5ede8ebf55603bU, 0x3edfe6183da92cffU, 0x3d9ee70bbda30b54U, 0x3d336b0a3d3f675cU,
  0xbe818a193cf80c2eU, 0x3e3da63fbc023272U, 0xbf7c2d01bf7f8f4aU, 0xbfe4aa20bf926226U,
  0x3dd818b4bf670912U, 0x3ded26b13e9d4730U, 0xbdaf2dcebf384dd6U, 0x3eb7d22cbf871da3U,
  0x3d9cc9c53d343989U, 0xbc8221243d8d4954U, 0x3ec1bdbfbf09b843U, 0x3d219bf53ccc00dfU,
  0x3e2728523e918b2cU, 0xbf553a22bf58e4f2U, 0x3ed29215bf0734c4U, 0x3e3c39e0bee6752bU,
  0xbe8527e03f19a79bU, 0x3db8a4ac3e221510U, 0xbd089e3a3e255672U, 0xbd78b4ffbf107c4eU,
  0x3e1f1d3c3ee236b8U, 0x3e162b6fbce85e73U, 0x3e6aa0d13e0f30beU, 0x3e6828683ec932b5U,
  0xbb5327203e11a3aaU, 0x3c8c084fbf9c58a4U, 0x3e39ddef3e810023U, 0xbe94df35be249405U,
  0xbed85e4cbdb96212U, 0x3d9c09733e01abe0U, 0xbdd4b93ebe817febU, 0xbd8f6e12bd4b3f69U,
  0x3cbca93e3ee428a2U, 0x3d1f920a3e843ac3U, 0xbfa4794ebe7b2164U, 0x3e70ea373d2a05aaU,
  0xbec101b1bd4e10b8U, 0xbec31aeb3ebcadb9U, 0x3dc12571bed02d4fU, 0xbf5d948c3da021ffU,
  0x3d70a5d03d16b9d9U, 0x3de1934c3e3584eaU, 0xbf47e7a43ec3f1d5U, 0xbe3cbfbd3deaccb3U,
  0x3e6ca5e63db2990cU, 0xbf158e8bbc608fc1U, 0x3ac4f28f3d57949dU, 0xbcab00abbf3e435fU,
  0x3d7f9404bf9e1a0eU, 0xbec402dc3ea7092aU, 0xbf466142be05ea3fU, 0xbdbf05843cdd68c0U,
  0xbc2426e93c352f91U, 0x3d00cd95bf37a200U, 0x3d88065bbe6b1a05U, 0xbd5b7d6bbb19a399U,
  0xbfb89b91bd2e7a89U, 0xbce160d1bf63ab51U, 0xbe5099c4bcb1f88fU, 0x3b4cfd883e03b22fU,
  0xbdb63a6dbf2d8449U, 0xbe6229263d4e965cU, 0xbfc64afbbe455773U, 0xbfb3032bbe89c03bU,
  0x3da5c2d7bebb9b89U, 0x3cc60d233e37706eU, 0x3d00e3ac3c81da59U, 0x3ca6cde53d7ff9f8U,
  0xbf3cef10bd738772U, 0xbeb8b7b8be73a9e3U, 0x3e17a16cbe53f268U, 0xbf582781bd903a72U,
  0xbe4c78f4bfc83a7fU, 0xbf3875d73ecc1be6U, 0x3e8a97f3bd338444U, 0x3d60422bbd37d979U,
  0x3e6abe943e429f1dU, 0xbe21dbbbbc9fe8e6U, 0xbcdbf9343e11bcd3U, 0xbfd4680c3dead1f9U,
  0xbd5a20f5bec2b82cU, 0xbeba432b3d88d83bU, 0xbe147d913e2749b1U, 0xbe97f5ff3e67d5e5U,
  0xbdd3e8d63e61e222U, 0xbd979fb63db17341U, 0x3e8360af3d0966c1U, 0x3f0e1b68bd2f4dd2U,
  0x3dbbff3bbdf21efcU, 0xbe0ccd28bfcdf955U, 0x3e9ae7673efdd5ecU, 0xbe7248613dd98e59U,
  0xbdd30f763e95c04fU, 0xbf69ea17bda8f249U, 0x3d93e779be843d66U, 0x3d9ae4a73e200a82U,
  0xbd981dd43e486b62U, 0x3e71f136bf324078U, 0xbdfc579ebe2165adU, 0xbe9fc7d13db3e2bdU,
  0x3ac29fb5bca3f958U, 0xbf9d38cdbda8925bU, 0xbd20aca0befb1fcdU, 0xbf676de23e9e664cU,
  0xbf771f1e3e40b27eU, 0x3d00c24f3df02b41U, 0xbfa07fb73ea3f7deU, 0x3d205f733e1a1c98U,
  0x3d1b5db83ea5415cU, 0x3db4f3053bb61b36U, 0xbe217fb63da672a7U, 0x3da038d13d840c1bU,
  0x3e2d354dbfc622ffU, 0xbef8bad33e0e5689U, 0xbe8960543ebb762dU, 0x3db0c0cbbc8aa517U,
  0xbda6d181bd575a44U, 0xbd044eb7be8ba83bU, 0x3e8e40c63e863c77U, 0xbdac0776be056709U,
  0xbe48558cbe375ce3U, 0xbd2417553e6adbedU, 0x3e2c4275bf49895aU, 0xbf711ae7bd75e3d3U,
  0xbec7fc0fbebb1980U, 0xbf230a053e87990dU, 0xbe83f24fbf7793c4U, 0xbde8e8dbbb2b86d7U,
  0xbf4f52a0bf33bc77U, 0xbf0746893ebe65feU, 0x3e5f7fa1be11f3e8U, 0xbe86c167bf39e9d3U,
  0xbe98717cbd084afdU, 0x3dd066b23e057176U, 0xbf76bc99bcdb4b10U, 0x3f7d1f1cbcf92fecU,
  0xbe5f63e9be00caefU, 0xbd9f70583d16cc8eU, 0x3d17ccd9bd338f79U, 0x3d84f4fb3e0b0692U,
  0x3ed9568abea4cf0fU, 0x3eb2c83ebec93f86U, 0xbfd2ee08befb4365U, 0xbe6bb8ec3cf29b00U,
  0xbea07916be84febfU, 0x3e0c69363e08da16U, 0x3ea168aabdbe3287U, 0xbb9d09b9bf99265fU,
  0x3d2d378c3e158d18U, 0x3d55d6e3bf17052eU, 0x3d483f9e3db66d0fU, 0x3e67ca173dd8e923U,
  0xbef2d97dbc78bf4dU, 0x3eb2c01bbef27961U, 0xbc3c8ef33f3a42d1U, 0xbdddde703cf5ff88U,
  0x3d8925333c64a609U, 0xbefd4620bdefe69eU, 0xbeff6435bc00baf7U, 0xbf3c1a9dbfd9344eU,
  0xbc4ce8773f1b3377U, 0x3f3ce5113cb730ecU, 0xbe2fe4143d52d7f0U, 0xbca35af2bd8963e8U,
  0xbe58c8203e6ab3e1U, 0xbf44982bbe9d3a6dU, 0x3e43bff83e0ee0e8U, 0xbf21d2183e29edcbU,
  0xbf5c61efbf7b6266U, 0xbf0fd8143c61e848U, 0xbd722884bd4564fdU, 0xbc1d5d9dbd7234daU,
  0x3dfeec053f82ac9bU, 0x3ea3e703bd3c7ce3U, 0xbf3d15debead66f6U, 0xbf7f55a63de2e554U,
  0x3cbb48f5bf17c388U, 0xbf071e833cb90eadU, 0xbc9b91523f15e898U, 0xbff44a00be4fb6d5U,
  0xbdeca9b03d80ef2eU, 0x3d7bd2793e858eefU, 0xbe63ede73e3b4327U, 0xbd5322a73d55cf40U,
  0xbea76822be9eed57U, 0x3e049e3dbf3b420fU, 0xbe4380fa3e70b5beU, 0xbf0398543e490878U,
  0x3ebd7221bdfa175dU, 0xbf1ee5f63e04ca4aU, 0xbe25d413be1aab99U, 0xbdcd2a8a3db66452U,
  0xbe1470203e2a168eU, 0x3eb5cf6ebf4b9220U, 0xbe6fe0b53ed42706U, 0xbf7d68653e856393U,
  0x3dfe818abd8b9422U, 0xbce6ea3ebf01cd59U, 0x3f024b6abec5093fU, 0xbdc8ab2a3dd9d873U,
  0x3e0b2c68be27e28dU, 0x3d170d62be101c41U, 0xbfdcc8913e009458U, 0x3d97dc173e23950dU,
  0xbeee06683ed2a30fU, 0xbf8880103d9aa736U, 0xbec6e1c33f0872d3U, 0xbde62e9a3dcf4c7aU,
  0x3ede3493bf8bdcbdU, 0x3d400b6ebd198752U, 0x3da188f83d4bd256U, 0x3e261ce13e93145dU,
  0x3d29a541bcb72d8bU, 0x3d9b8e77becf87a2U, 0xbde1a7623e62e24bU, 0xbd7d88203db44483U,
  0xbf39debf3e056307U, 0x3dc7e130bf296914U, 0x3e5b06573e2f6e0dU, 0x3da853453db2543bU,
  0xbea42948be2ad17dU, 0xbe3c9b403df85828U, 0xbf3bd36c3de14f64U, 0xbf5c9fc0bf013647U,
  0xbd365c653f1cf724U, 0x3e836ebe3e53af4fU, 0x3edbc3583e0becabU, 0xbc810cfe3ce8348cU,
  0xbd702e4f3c99aaf3U, 0xbeb6884b3e51b810U, 0x3dc1a7ab3d4545a3U, 0xbf5c9a4abd96d837U,
  0xbf9af650bf979995U, 0xbf472ef33e27f806U, 0xbf342de73beba2d9U, 0x3daeb6253e012e0dU,
  0x3e71ebef3e9e996fU, 0x3ed8db413de7ae7bU, 0xbf6fce25be975bc7U, 0xbf9264813f07fa5eU,
  0x3d296a1fbf96b716U, 0xbf1800ae3dcce171U, 0x3d459e1f3eb653c8U, 0xbf27f7fb3f03b60dU,
  0xbd9a5d563b41967aU, 0x3e7499093e02878cU, 0x3e99f15f3ee370c1U, 0x3e24dac3bcf5e5f9U,
  0xbdc2d559be5a9278U, 0xbe06a80ebe504f8aU, 0x3e08b0cb3ce72d99U, 0xbef658e4bddb268aU,
  0xbf12c96cbd6a5f62U, 0xbf4c00a83ce387f0U, 0xbe0bf952bf333575U, 0x3d0ce5d23df98e2fU,
  0x3af510d5be820315U, 0x3d1388bebdeae70bU, 0xbfcab546bcef9d2aU, 0xbfb74248bf792977U,
  0x3e43fab4be20cf8fU, 0x3d5194ff3e160c5bU, 0xbe7a14a5be43acdbU, 0x3d4594f5be345161U,
  0x3db875cf3d1f301aU, 0x3e144aac3e0e386fU, 0x3e0a50993dfe25e5U, 0x3e0d10703dfbfde1U,
  0x3ddbc6c6be106810U, 0x3f0b3ad5bf85cdfeU, 0xbf3e1b4bbf5961deU, 0x3d049b5a3e686a58U,
  0xbd99a07d3e0638b9U, 0xbd82e7583ef4e75dU, 0x3e817f193daeba91U, 0x3d7306c9bf1346efU,
  0xbf9bbd6abf2aa8eaU, 0xbf8305523d7c5b37U, 0xbc1e8c68bf9913a2U, 0xbee3fc65bf9cdd36U,
  0x3c49002e3d26d603U, 0x3eb7a6ca3ea9d88eU, 0x3cbd069cbf065e28U, 0x3e4b6bc13cf17b8bU,
  0x3e94108fbd806ec1U, 0x3ed68690be952de8U, 0xbcdb23333e299f78U, 0x3d8b7dae3dc94c73U,
  0x3e9a6fcbbf03da17U, 0xbf3230363db2b5c9U, 0xbce9412b3cf847a4U, 0xbbb8f1f8bf8f7d37U,
  0x3cc22ee4bfb472ecU, 0x3dca769d3b97aaf9U, 0xbd65be15bf215c34U, 0x3db9834bbfa5a120U,
  0x3d6cc8333d9ad1a0U, 0xbc79f05ebc40d552U, 0x3e4eece5bf8a279bU, 0xbf8e163abfa86728U,
  0xbe1e7b01be90a262U, 0xbea2e534be7ae33dU, 0x3e209a473e166d88U, 0x3d976fcdbd115152U,
  0xbd72dd923e654ec9U, 0x3d7bf53fbf04a78cU, 0x3d89bda93df3a6aeU, 0x3caf25c3bed47a92U,
  0x3b03716bbd88b5eaU, 0xbdf50df1bf1c334aU, 0x3ed7b9e3bea7ec95U, 0xbe1af278bada1f42U,
  0xbf911dd6be644825U, 0x3d3fdca1bf07f4e5U, 0x3dc4ea183e1c39baU, 0xbe9c9a533c148d9eU,
  0xbe086564bf01753bU, 0xbf587124bdf54ceeU, 0xbf7e1a40bf846022U, 0xbf634abcbe7e5639U,
  0x3dae541d3db877fcU, 0xbd955883be965b3fU, 0xbe1a0579bd31554eU, 0x3c1882afbdc37744U,
  0xbebbc0c9bd89fc51U, 0xbd3279613d18e621U, 0x3df956fcbdbf6366U, 0xbe133a06bd2e2b5fU,
  0xbc858324bf827a5dU, 0xbefa80f93ed77bfbU, 0xbe0597f9bd1618e7U, 0xbcc7b410bddcd9ceU,
  0x3eec6e26bd8b3183U, 0xbe956794be8af1aaU, 0xbe2e747a3d9afbe4U, 0xbf8e8f853e5f63b2U,
  0xbd6855d2bf0bd042U, 0x3e31c9babf361b19U, 0x3df8404abccf2f29U, 0xbe36aa013e58bfa1U,
  0xbf9e1cd9bf9cdcbaU, 0xbdff6d9abd761885U, 0x3e9d92c53d1f048eU, 0xbfb08392bf9e9fe6U,
  0xbe2447f13d82595eU, 0x3bb02cc7bd34f896U, 0x3ce351d9bf0b730eU, 0x3d270a543de8ceb5U,
  0xbe6b9d5ebecdd1bdU, 0xbbd5dcf1be004146U, 0xbe643a813d79a0e0U, 0xbe262d2fbc35625fU,
  0x3e19b441bee7a009U, 0xbf14ed463f0c04acU, 0xbd1f5829be5943fbU, 0x3d33c1423e0bcce7U,
  0xbdb17bacbfbe0194U, 0x3ee151533da2cc1aU, 0x3dabca06beddf9ecU, 0xbe883ad5bf92cf00U,
  0x3ca5b84e3c7feb44U, 0xbe08a2493e50f67cU, 0x3f2cd55cbfbe64cfU, 0xbd28d1903d2c1a91U,
  0x3d8e3c58bef03b62U, 0x3e211c733dd3636fU, 0x3dd435a83e3fcc52U, 0xbe4743123ec7de98U,
  0x3cfae6b33ee48b4eU, 0x3e528a403d5e1bf0U, 0x3d552508be7fbf11U, 0xbd553838beb6edd2U,
  0x3d4626eebce4e7e1U, 0x3db9cdd33d0a4152U, 0x3e58b1c93d9a8cb7U, 0x3dd66094bd5d0da2U,
  0xbe32acebbec11262U, 0xbf46cc8dbf1b07daU, 0xbe92cab4bf98f347U, 0xbef390c33d9ba8ecU,
  0xbfb22576be4fede7U, 0xbe5f13eb3d036c18U, 0xbe8e8126be187299U, 0xbe2cbc2d3d6dcce2U,
  0xbf36a8a0bf898f16U, 0xbf76112bbf2a7c64U, 0xbdd45352bf0cc27fU, 0xbe7fb0b8bf3de394U,
  0xbf3958883cf2b959U, 0x3d0ca7bb3f45ee58U, 0x3e53eeaebf63b444U, 0xbd0433be3d0dc3ccU,
  0xbe0be043bdd218c1U, 0xbde5be0abd362268U, 0xbf6374f93db8035aU, 0x3da250a13e488ac8U,
  0x3e67a346bf77162bU, 0x3e751691bef27ed9U, 0xbf0403313eac1f73U, 0xbb24fd31bcf46fdcU,
  0x3e3e3b37bf8577f8U, 0x3e57d0453d2c7e10U, 0xbe045effbf2df447U, 0x3cd71e64bea043e6U,
  0xbd86354fbf18da07U, 0xbd2b44ccbea36942U, 0xbff43affbd5715b3U, 0xc002cbadbe95b65bU,
  0xbed43ee8bf70d196U, 0xbe791f9cbf389edcU, 0x3cf752cfbfb95d62U, 0xbe66f5cf3d275bf3U,
  0x3edcc807be6f2d61U, 0x3e758eee3df47868U, 0xbebe50cfbe0dd7f4U, 0xbe92cfa4bd756f3cU,
  0xbcbfbad9bf9b23d0U, 0xbfd11083bfaa0f13U, 0x3b6ce0b03dffbe1fU, 0x3eead4eabe8673f5U,
  0xbde96cadbcdc4cb3U, 0x3e070da13d911cb5U, 0x3e412b95bf12734aU, 0xbd9c7b62be392c2cU,
  0x3e813ed0be141182U, 0xbde757edbf4cfcedU, 0xbf9592afbfafc48dU, 0xbc836272bdcc2881U,
  0xbdd4bc3abfce3bbdU, 0x3d54aeeabe859e2eU, 0x3e84b89a3e9a0341U, 0xbe671b803dce3a46U,
  0x3de5549dbf998dd2U, 0x3e9e2e1fbe03197aU, 0x3e3025f6bf6cb8c6U, 0xbdc9f261bf0ae77fU,
  0xbf1ca488bf10f8caU, 0xbfb5dd363edee679U, 0x3e852be6bfcbdeb5U, 0xbe387b41bf4868a2U,
  0x3d007f36be97f852U, 0xbee18dafbef6da3eU, 0x3e4c117dbe65b6fcU, 0xbd40f3b6be2c61a5U,
  0xbf5c13c23e2f3422U, 0x3e858a52bf7920a1U, 0x3e6543d93e2ba268U, 0x3e6584083dac036fU,
  0xbee0985ebe6d9fdcU, 0xbdcb9d953e1b5f87U, 0x3aad4821bf983376U, 0xbb9d4c53b9f1ad36U,
  0xbf8bf1cebf8d9708U, 0x3d94563abf070061U, 0x3e3c19c83dccd32fU, 0xbf291cbebf4887dcU,
  0xbc2c23393e0a29f5U, 0x3d82b6c6bc89e15cU, 0x3e1af6babe945d8eU, 0xbfe26ae7bfb27d93U,
  0x3e69baacbe50d202U, 0x3ea873353e09d34cU, 0xbd2ce122bc2a51a0U, 0x3e72d9273e00da46U,
  0xbcc653343e04df5fU, 0x3cecaac6bfeaed97U, 0x3db66b9ebea2c474U, 0xbdffe6b6bf368737U,
  0xbdd2d6fabe0c319cU, 0x3e62fc46be5089f9U, 0x3e72ae913e9093fcU, 0xbd087ad4be0b6c83U,
  0xbe9588b73e861115U, 0xbe92a801bf0c522bU, 0xbe6492adbfd007beU, 0x3c96d822bdb3b849U,
  0xbf75e6dfbe40342cU, 0xbe129b80bd551145U, 0xbe964c3cbe2bebaaU, 0xbe5fec3d3c99cdc5U,
  0xbf1d0ce7bfc1e32eU, 0xbfaa0860bd4c075dU, 0x3ed74cd4bf10fb9fU, 0xbdfc25913e4eec37U,
  0xbf10a2bfbde87f92U, 0x3d60cec43e7ec9cbU, 0x3e96f020bf1773b6U, 0xbe8012f3be08eee3U,
  0xbe4e4e24be38765bU, 0xbdf8163b3e4ca22aU, 0xbf684034bbc10164U, 0x3c53e3423e11c15dU,
  0x3eb97b06bfe038e8U, 0x3f04f45d3e4f70fdU, 0xbd54da2c3e1f2630U, 0xbdd909153e324d15U,
  0x3d09969ebf1b0188U, 0x3dd27eacbe5231e3U, 0x3e8da281bf198812U, 0xbd5c91d0bf2079a5U,
  0x3cb64e5fbd228f08U, 0xbe8c649bbe01fed2U, 0x3da4d55abed91a0cU, 0xbda803203be6b33aU,
  0xbe1b2e9fbe4cb4ccU, 0xbf772667bf47c37eU, 0xbe7e2b52bfb39e2dU, 0xbe3498633d7b592fU,
  0x3e8135323cd0ae07U, 0xbf23d918bf27e00eU, 0xbdeeeb11be3d95aaU, 0xbe2ae3d2be6807f2U,
  0xbe61110ebf89d32bU, 0xbfabfa19bdf25966U, 0xbe6f9dc33e29d30cU, 0x3db6ab03be308e47U,
  0x3e9a90dc3e7c3623U, 0xbe6108723dcfb437U, 0x3eda81a5bf2ecd68U, 0xbf3331e73cb808adU,
  0xbd4f7d90be1e3a8fU, 0xbe28880e3e416383U, 0xbe79f36abdd5d41dU, 0xbebbc071bea81527U,
  0x3c32a124bfb447b7U, 0xbebf0d19be5196b8U, 0xbe5a148cbc26fc83U, 0xbeaf8394bea2d377U,
  0x3e72d202bef4b016U, 0xbf2a51f6bdc5aa73U, 0xc00e7d58bfb79824U, 0xbe8a60b33e4f69c6U,
  0xbb1af690bd7b233eU, 0xbefd13b7bdfd6359U, 0xbeb2f2adbeff2fe0U, 0xbe02dfeabe05a706U,
  0xbe04b2243db06536U, 0xbe479cfbbf8258ecU, 0xbf794cd5bf73ac96U, 0x3d8cc15a3e3cce89U,
  0xbf0e7978bd0be12dU, 0x3d2885a2bf8de295U, 0xbd33a8f4bd2bde6aU, 0xbdac26193e016f5fU,
  0xbdce6163bf158c7fU, 0xbf736e97befd4bb0U, 0xbcd5b42fbf05be13U, 0x3dda28c93cb1401fU,
  0xbd802281bd0c994eU, 0x3a5086e9be473e6fU, 0x3e2e03d43c0aa7feU, 0xbf587f21bd3c1b6fU,
  0xbe6acc4fbd192515U, 0x3ad5b05bbe027073U, 0xbf2ed810bd828438U, 0xbf23c119bf211232U,
  0xbeaa5c59bf52e3a7U, 0x3e2228ae3bec64c1U, 0xbd2d85a83c4b1665U, 0xbcf9d556bea17e2eU,
  0x3eb068cfbf58c4fbU, 0xbe9f387a3ef20b37U, 0xbf019740bf32428cU, 0xbd10e67bbbcef716U,
  0xbeabe794bf48bb6bU, 0x3d04877abf8fbc36U, 0x3e8efeb43ba81b6aU, 0xbf87ee5cbea23987U,
  0xbfea67d3bdb6b02bU, 0xbdb3f275bf4d5bdbU, 0x3e4a3a773e3cefa8U, 0xbdb844e6ba8ccfabU,
  0x3f5804d1bfc3fa86U, 0xbe8771eabcddba45U, 0xbfe94a8ebd5131acU, 0xc00f020fbe59ccfbU,
  0x3d22f3f33ebee643U, 0x3ecfce29be8c5564U, 0xbcefd8f73ed64488U, 0x3c886a523d95d973U,
  0x3ced8284bdc9e065U, 0x3d618751bcddbae8U, 0x3d15a396bd85a0dcU, 0xbda3e8b5be94f84eU,
  0xbcdbf765c0103fccU, 0xbfb99d053d8ca68dU, 0xbf6fde42bf4c4ba9U, 0x3c1cc2c53d98106cU,
  0xbc5822113dc6488bU, 0x3d1812ab3e085097U, 0xbdcb98603d503d83U, 0xbfeb0cce3deab2f6U,
  0xbc511d73bfb41b8eU, 0x3d1529abbaa3cf09U, 0x3e55b168bd3e2d5fU, 0xbdbd1ff03dad90bdU,
  0x3ba99dba3d9b7129U, 0x3e77dc4a3e8de609U, 0xbf6c9c703d27f517U, 0x3dc991a73d99df25U,
  0xbeb09e5bbdedcabdU, 0xbc2bceb9bdc07e67U, 0xbe112d603e7ff721U, 0xbeb3143e3e2778c1U,
  0x3f4bd623bda46b26U, 0xbbb3a7803de8b925U, 0xbdf88732be91ee58U, 0x3e19ae8c3c81c333U,
  0xbd9cea0b3e9f0b06U, 0x3e96055bbef0a0f4U, 0xbcf588863d1e1d8cU, 0xc044d9b9bcc84747U,
  0xbf2fbaa03ccf7c7aU, 0x3c301502bee02a3dU, 0xbe827ee83cc0a1b3U, 0xbf0cac24bdbea4bdU,
  0x3d45abc3bde92de6U, 0x3e78facebf795e3eU, 0xbea889b83c0a833eU, 0x3b1943ac3e8e6ec3U,
  0xc0031ad33f2a9470U, 0xbf9ec0953e19fdebU, 0xbf21cdb73e43da28U, 0x3da77ce0bdbfe96aU,
  0x3dce63d23ebc467fU, 0xbd69ebc6bfcb5871U, 0x3d96416a3e81290dU, 0x3c61642abdc00479U,
  0xbde8d627be1efdf6U, 0x3e980f2c3e081517U, 0xbe029b033f2aa760U, 0x3a9270fcbe07307fU,
  0xbf6794b7bdbc6f55U, 0x3d4ee889bef0fdfaU, 0xbee261febef48be3U, 0x3d8ceaa4bce605fcU,
  0xbf5a4b2bbf06be35U, 0xbecf0bf13e4072c2U, 0xbf48058ebf1827adU, 0xbe730d30bc23bf94U,
  0x3dbdc8b3bf409ce3U, 0xbf1f03433cc4b9baU, 0xbe29ac71be3dafcbU, 0xbf0b6cd1bda519eaU,
  0x3d95eb69bd5e87a0U, 0x3e89432dbf88b1c2U, 0x3e101fe2bf28695fU, 0x3ef83576bde6bdaeU,
  0xbd3d8046beb0acc0U, 0xbe6624f9be89a959U, 0x3dea5878bd855fcbU, 0x3eca04053f059dd8U,
  0x3dbbdc18befda3f7U, 0xbfcbeaecbe02a469U, 0x3d28ea5f3d9a3050U, 0xbea5d540bf43f551U,
  0x3e190bb7be219b0fU, 0x3f78f8103ebbed33U, 0xbca32400be18c73bU, 0xbd00cb53bd4542bbU,
  0xbd121c68bbc3eaddU, 0x3e8e75693c228d53U, 0xbced96da3e3b30a9U, 0xbcb28697ba0b0048U,
  0xbfe89fe53b2f2459U, 0xbe39c514bef2a598U, 0xbedeee27be27383dU, 0x3ce893023d5c59f9U,
  0xbf8691f4bf5af39fU, 0xbddd9b9c3daca3c3U, 0xbfd38aa4bc724a07U, 0xbf90420dbe38bd81U,
  0x3e01f0123cac3049U, 0xbe31cb19be89c915U, 0xbdd55028be5dd10dU, 0x3cdcdc333d22b720U,
  0x3e7aa2403d41fd07U, 0x3e4222b2bd870802U, 0xbe125565be905dcbU, 0x3e90dfcfbd1c11eaU,
  0x3cfd9d45bf47fac4U, 0xbef5b26dbd029e5aU, 0xbdfbf3ad3ce71af8U, 0x3e41d8793e0d3002U,
  0x3e16a3b8becd0627U, 0xbf8f47cbbd30c272U, 0x3d48f0223d34dddeU, 0xbf6cfda2beafa1e9U,
  0x3e204b73bf2167e3U, 0x3ee878433ec2561eU, 0xbd34362bbe5da16bU, 0xbe0668613c5d9abaU,
  0xbfa21496bfa87233U, 0x3db46eed3d6d1212U, 0xbdc61f5a3e26bee6U, 0xbf2fe3fbbfa47846U,
  0xbe8e7ebdb896e651U, 0x3e2463d6be3abf6aU, 0xbf5a4d183d8df6a2U, 0x3d0a7014bee7e87cU,
  0xbdbf2f3ebf9e9030U, 0x3e5d5548be198adeU, 0xbe7272733e1604d0U, 0x3b7552b83e428d32U,
  0xbe2187483e30d35fU, 0x3dbba447be6e0281U, 0xbf925c3dbe956eb9U, 0xbd1238debc023819U,
  0x3f4246f0bf92ecb1U, 0x3e98e6d43d1b91e3U, 0xbf3fff5fbebdc0b5U, 0x3e987c02bfa16975U,
  0x3e8d86003db8476cU, 0xbdb3283b3e07826aU, 0x3d9d0d54bf5496c1U, 0xbc521e8f3dab794dU,
  0xbdc628013d92e1bcU, 0xbfbc73fd3dd495efU, 0xbb40bf41bdb102edU, 0x3db36372bf275547U,
  0xbed7937abb9b17cbU, 0x3d9922193f04ddc1U, 0xbf1ccfb33d91aba1U, 0x3e9e1eadbe890e11U,
  0xbf7aefcfbfb56973U, 0x3c5e5526bfa5e463U, 0xbccdeaec3db3e40bU, 0xbf53337fbf5d6cc3U,
  0xbf0707663d0bf304U, 0x3b79e9023f10febaU, 0xbc2f3ca2be3efb93U, 0x3d20ea37ba933878U,
  0x3eedb72dbf43d7cfU, 0xbc86c1f83c3f2fd3U, 0xbf1582de3d87c335U, 0xbfc5e340bf4038b1U,
  0xbe8c95f6be6f0e00U, 0xbf262930be6bdf43U, 0xbf0e136e3d86579eU, 0x3d0abffa3d8487b0U,
  0x3cc065c0bf5f3095U, 0xbd1ac25b3cc90898U, 0xbd3ccad3be97a401U, 0x3ecc0b52bf3bf421U,
  0xbc409581bfcce0afU, 0xbfc5a9103f1b64abU, 0x3e853354bf434278U, 0x3d87daca3ddcfce0U,
  0xbdad4bfbbf1a6cb9U, 0xbe92e0eebd44657eU, 0xbcc29e3c3c5afe45U, 0xbfe79f07bc4188e2U,
  0xbda48c6ebdc0edbaU, 0x3d9c45583e22cf11U, 0xbe288f65be6c5950U, 0xbf35ceef3e626cc6U,
  0xbe464367be9aac96U, 0xbf805f4c3dce2953U, 0x3e63e62abeb52d4aU, 0xbeb59ea0be365db3U,
  0x3eb260393ec1a8ceU, 0x3d8270503d4f68ceU, 0xbe27319bbf91aab6U, 0x3daef916bdb01d72U,
  0xbf3667ec3d1c3eadU, 0x3e86c9d0bfedb5f7U, 0x3db9084a3b51a08bU, 0x3e6dee2b3d48bc6dU,
  0xbec7fe59bf341e18U, 0xbf80af093c053cb4U, 0xbd331ef5bf8df61cU, 0x3dd82be23c8b5bfbU,
  0x3d8379adbf31ea34U, 0x3e2486773df4d35cU, 0xbeac64753deb0f51U, 0xbe531863bed07583U,
  0x3d84b4283e973b08U, 0x3e7a9141bc669cbcU, 0x3e169dabbf37ef55U, 0xbf7eb42abf4b75beU,
  0x3e90b53cbf9b9473U, 0x3e4a66783d091fd8U, 0x3e5fd119beca5be5U, 0x3ead3dc13e957ff8U,
  0xbc8af6673d30b8f9U, 0xbd99f69e3e1b6d32U, 0xbe3b59e7bef97b6aU, 0xbd7dde3ebd1cc3b5U,
  0xbd976b373c4ce4f3U, 0xbde80a353ab86448U, 0xbd1be3bf3c87772cU, 0xbd75d9c5bd01a64cU,
  0x3cde5fbdbfc74f2dU, 0xbeac4ce1bf912e29U, 0x3d619671bfa9b37aU, 0x3e18c44d3dce7029U,
  0x3d101f333dda1731U, 0x3df9f024beb0c8a2U, 0x3d814e0dbd438599U, 0xbd4e294e3d94e3aeU,
  0x3dfd42b2bf895dabU, 0xbfa41ce8bfc10347U, 0xbe47992a3d9eb2e1U, 0x3d01bc3fbd93a3a1U,
  0xbe3217dfbc358e61U, 0x3d8188923e54ec17U, 0xbca6f24bbe493ea2U, 0xbef8d1f4bd1fe155U,
  0xbc4d41013d40e777U, 0xbd9332e8bf195298U, 0xbfe40921bd063b52U, 0xbe8e9468be99b449U,
  0xbdcef52dbfc54500U, 0x3f3b6a43bdad4d2eU, 0x3cb4344b3f228c4cU, 0x3d3cc79c3db5a7a9U,
  0x3dd1d5bdbfec1d29U, 0xbec148df3f3994f3U, 0xbf280322bf646890U, 0x3c50f1efbd619435U,
  0xbf85bc57bfab5d9fU, 0x3cd76e6f3e0eaa70U, 0x3e13f7293df352deU, 0xbefea533bfabbdc9U,
  0xbd86c158bdebbd40U, 0xbd67b98c3f385f81U, 0x3c5b46673d9f497cU, 0x3d033bfebfd474b6U,
  0xbeffc68dbeec9c04U, 0x3b5022283d8fa173U, 0xbdbf401bbee54f91U, 0x3d64ac15bd1b106dU,
  0xbc2a12c93d264ed5U, 0x3de90aec3db0df18U, 0xbf516c0fbe92f84bU, 0xc018b6ddbf82761dU,
  0x3adaf04fbf837ad6U, 0x3db22f2dbf66b8daU, 0xbf29368abf139b10U, 0x3ee5aedfbf90522bU,
  0xbde1e0cb3ce1d3b0U, 0x3d28cc483e6a50c0U, 0x3e1a28c7bed76f34U, 0x3e07086c3de62cb1U,
  0x3d103d893dfb6826U, 0xbf5ec7f3bf38d060U, 0x3e2cdda5bec9bd75U, 0x3de58f3fbe8b292bU,
  0xbf8e91843e9ed2d1U, 0xbc8ff3a03d0ff29dU, 0x3d87c35c3d741ff2U, 0xbb9714e2bf7f1711U,
  0xbf4e0af1bf4d0231U, 0x3d11cc2ebc51dd66U, 0x3e22b94c3e28a64eU, 0xbe8f0b24bf5ffb31U,
  0x3e7d4b103ca5af57U, 0xbd51fe473f19d999U, 0xbde001443e09e4f0U, 0xbd7ac581bfc78560U,
  0xbf5bad62be1ad67bU, 0x3e7922e03e0219fdU, 0x3e1483e5be6bdfd9U, 0x3b6cb778bee9c77dU,
  0xbc1685c5be089d68U, 0x3ddb3d3bbd329898U, 0xbf195642bf1c0633U, 0xc01b206fbf41238fU,
  0xbb80355dbfa00ee5U, 0xbcebb9d2bf1abe10U, 0xbea85f71bf13f278U, 0x3e95b9acbf998ffaU,
  0x3d3387063ddb25edU, 0xbe96c2253defd0b7U, 0x3e942cedbe89022dU, 0x3cafb55cbd92edf5U,
  0xbe53122c3e122e2cU, 0xbf26c099bf8911a9U, 0x3e01b66fbf3f1edaU, 0x3d83bdc2be87ca6bU,
  0xbf3e4e5c3e66f59aU, 0x3d75bbd53e771d20U, 0x3d6a713abca84ea2U, 0xbef759a1bf0ad5d2U,
  0xbdb7ae2dbd72bb2dU, 0x3da260ab3e89eb08U, 0x3d5b7f943ee970b1U, 0x3dd2e8cabd98fc37U,
  0x3db09d4cbf971e1fU, 0xbf5dbaecbe8ee76bU, 0xbf80a56cbf02a7dbU, 0xbeb801fb3e1b9561U,
  0xbfcd5d913ceb8b6cU, 0xbfc5207dbd4362d2U, 0x3e1bb800bfc71ca4U, 0x3cf04daa3de1e5d4U,
  0xbee4552bbf320c33U, 0xbf076505bfb2e4b8U, 0xbe5ffc81bf60674aU, 0xbed2d087bedfe409U,
  0xbf66a6bbbc17b7c6U, 0xbf282131bf507855U, 0x3ea58b30bf3fb523U, 0x3ae268d4bdd41db1U,
  0xbebeb9993d22bb88U, 0x3c93ed99bf1e795eU, 0xbfab15863d1fddfbU, 0x3e750dab3e91bd78U,
  0x3dda1915bf23a3a2U, 0x3edee237bec1b829U, 0x3e8cee963ec7fde3U, 0x3e0322bfbf1a67a4U,
  0x3e929e34bf79838dU, 0x3e3a68883dc8c5e8U, 0xbf06ed9bbf5d54f5U, 0xbd5555603e161419U,
  0x3e20c3133d9188e6U, 0xbf2d53ccbe9912f5U, 0xbe03b897bf9f5fcdU, 0x3d1f9ca9bbf15faeU,
  0xbd8dd464be80211fU, 0xbb0c41203f7f9613U, 0x3ddc6a8a3dc8c2faU, 0xbf77fb8dbdd22bc7U,
  0xbf54f8d93d9b409eU, 0xbf499402bec2c228U, 0xbd284a8ebf5bc6e0U, 0xbd707cf2bc4d08cfU,
  0xbede6e723c86218dU, 0x3e089c1cbe03af4aU, 0x3e54930cbebc36bcU, 0xbb484272bef45177U,
  0xbf19c608bc1e748eU, 0xbe6e7b5dbc1f3558U, 0x3d144efb3dfb68a9U, 0x3f13ca713e469f38U,
  0xbf371087bd878900U, 0xbda2c9803e204779U, 0x3df86598bd2a0707U, 0xbf21839cbf73f574U,
  0xbe1cb36bbc40a1fbU, 0x3e3744e3bf326eb4U, 0xc0044cf4be855a1aU, 0xbe8b42203d83d1adU,
  0xbe9991913ec6cc0aU, 0xbea2ad7a3f3a06b8U, 0x3eb6c192bdd2b5fcU, 0xbd4163babd9bcac7U,
  0x3e5b11bdbb8982caU, 0xbe0b37bf3e3842e5U, 0x3d925d8abd4df18eU, 0x3ec4fb603d8c55e7U,
  0x3db66d06bf6877a1U, 0xbf4ce2d8bf105682U, 0xbe710391be9264f9U, 0x3c810c193dc454a3U,
  0xbf914a1e3e296850U, 0x3e02b2aabd583817U, 0x3e2e8c463ded0180U, 0x3d06fc8bbeb62795U,
  0xbf6b586cbef04e6eU, 0xbf1e8f07bf3e8f3aU, 0x3e44d648bf4b7eb6U, 0xbc9aea573dc1e11dU,
  0xbfa987f1be325215U, 0xbe6f3f17bd97a0d3U, 0x3dc8bfdb3e8f91feU, 0x3da50d7dbec59d6fU,
  0x3dca86883e0d34d0U, 0x3d0b60b3bfc452fcU, 0xbf59556e3e09d012U, 0xbd720a443cc24bdaU,
  0xbbee43b5beaf55a8U, 0xbea735243e2ca68fU, 0x3df73c7f3e083be6U, 0xbdf33b28be7cdbdcU,
  0x3ef2ba91be627d8dU, 0x3e039f53bf63bee7U, 0x3e9dfe23bf2badbeU, 0xbef2d4aabb0974b4U,
  0xbe6923f83d4a7cd3U, 0x3b5844b6bd8d40c1U, 0xbf81306cbd71fceeU, 0x3dc1b07cbe125762U,
  0x3ea6b39cbf311686U, 0x3e1df26bbfda4c8aU, 0xbf809d683eb9b65fU, 0x3d089859bd9a9395U,
  0x3f633c9d3e897846U, 0x3e23b355be05d54cU, 0x3e0f2afbbd9eaaeaU, 0x3e23e312bd121851U,
  0x3e2676b2bcdbb4cdU, 0x3ec89d2bbf9b1b23U, 0xbfa229fa3f01f6ccU, 0x3d1a78d5bf5d6551U,
  0x3dcfa9373dea3861U, 0x3d84a8173c9c1662U, 0xbe76aa5ebf6ad8d2U, 0xbfa27d32bd859c04U,
  0xbbf15e9a3b8ec078U, 0x3cbdcfd53e2a2149U, 0xbf8bd7babe871cb1U, 0x3d394b413e4fefdeU,
  0xbdfed3e83e39d074U, 0xbeb5123cbfad9e59U, 0x3cac338dbd1759edU, 0x3dbf6b62be7272d2U,
  0xbeb1c71bbfd817cdU, 0xbfcfa0163ecf8251U, 0xbffe3a093e2a59adU, 0xbba2e95ebe34eb12U,
  0x3c8bfb6cbcfc06abU, 0x3d8cd6e1bebabd29U, 0x3d8c34f8befe65a4U, 0xbe070835bd573e75U,
  0xbe467cc5bdab3e61U, 0xbe959cf2bf14206eU, 0x3db5b019bfdd4336U, 0xbef0b00ebd44561dU,
  0xbf26bd67be68afdfU, 0x3d418c053e573069U, 0xbe97bc8abe34e4a5U, 0xbe95231abd6c8eecU,
  0xbec82281bfad539aU, 0xbfb5659cbe4373b3U, 0x3dce3402b8a3ac95U, 0xbdc046bbbd678ea5U,
  0x3da9db99bcb6e894U, 0x3ea361403ebb6716U, 0xbf0afc9abec4eca8U, 0x3d631a5bbd3d33deU,
  0x3e360f47be8ecf8aU, 0xbe544da33d8f96e6U, 0xbe8b5bcebd82bcbeU, 0x3de4500abe1354baU,
  0x3eedf0dbbfe26eb4U, 0x3e9d1de8be1fd0cbU, 0xbeffdfbbbf63ed33U, 0xbe896da33e9a2b29U,
  0xbe634e98bed8d587U, 0x3e9a4b2ebe2df14dU, 0x3ed73c90bf1e0470U, 0x3cc9fd6ebf12a669U,
  0xbc8c3ac43c9827b4U, 0xbd9a0660be37a527U, 0x3d369e1bbe985908U, 0xbd015ee63e1ddc7dU,
  0x3e5cc84abf1e0ddbU, 0xbf97965f3d9588beU, 0xbe52cdb3bf6cc8bfU, 0x3e088b643c1ba3b5U,
  0xbfc1f1723cb03b9bU, 0x3d223aa0bf0530d6U, 0xbe14cf9d3cd26426U, 0xbe22f9cebe93eb65U,
  0xbf7bf2d0bf7d3efcU, 0xbf5c08c4bdab1fbdU, 0x3c8faf6fbec70522U, 0x3d0404f23d8f3fbaU,
  0xbfc4b74a3e8c544eU, 0xbe8c9631be4463fdU, 0x3e8d53d03e9f9a2cU, 0xbeeb05303e78f734U,
  0xbd0e1605bbcdd0feU, 0x3c8a0f19bfafeca0U, 0x3e1b7ff6bc9f2a57U, 0x3d2099323cc657ecU,
  0x3c146060bf360303U, 0xbf037f103d158bbcU, 0x3d9c17ba3e33d038U, 0x3ad5ca0cbd8c73f6U,
  0x3e90ff593eedb2c2U, 0xbeb70e72bf24bc05U, 0xbeb8641fbf733e39U, 0xbebd06033e01135bU,
  0xbd815baf3e64b981U, 0x3df11ec43e6ce952U, 0xbef217673e06dc08U, 0x3e279e953c605404U,
  0x3e1437d5bcdc4dedU, 0x3e062e523e7851edU, 0xbeb7c6c73ee023adU, 0xbe93aefcbd68719eU,
  0x3f16eef23dfd4c61U, 0x3e8d73293d975091U, 0xbcb04939bf01c561U, 0x3e8808573e02b540U,
  0xbe00ad423ea82421U, 0x3f0f01923eea10d2U, 0x3d5a0d8ebec868a4U, 0xbf83ba68bf872f84U,
  0x3d6af339be47c644U, 0x3ed3bb74bc2c7706U, 0xbf94a7293e494e1dU, 0x3e6918e43b7ecbecU,
  0x3ee786f43e9c5e0aU, 0x3e21ec413dabd413U, 0x3dee8e623e56ce92U, 0x3e43e78d3e164eb9U,
  0xbf5e03bf3eb8d405U, 0xbf433c18bf2b56a4U, 0xbe38b3a5bd848e04U, 0x3ea269eb3e303b65U,
  0xbdd99b8bbd4185e0U, 0x3f0aa01bbdc61dbcU, 0x3d2fa9bd3e8da768U, 0x3dcec7bbbf0ef776U,
  0xbdb890dcbe361045U, 0x3d96b70a3da0e75aU, 0x3dcda777bd1ee46dU, 0xbe315718bda62663U,
  0xbe2e36cdbf37631cU, 0xbd9cc40ebe769f53U, 0x3b975fd5bfd2da54U, 0xbeaa13febdabfea3U,
  0x3d3101e1bebde557U, 0xbef73081bcd68646U, 0xbe4a2807bbb1adfdU, 0xbe08c4cbbd118abeU,
  0x3cd5675dbfacd355U, 0xbfb8368bbf190344U, 0x3d669aef3dadf67eU, 0xbd120312bb6d35b8U,
  0x3da6029bbe4818c2U, 0x3eb321a6bdb9e49dU, 0x3d51a3acbf1f342eU, 0xbe64afd1be346c1cU,
  0x3da85c8ebdbd1cf2U, 0xbe2fa212be112693U, 0xbe6f5f64be366fa7U, 0x3d178d01bc22e907U,
  0x3ea84116bfc0fd36U, 0x3e98d010bd6f82fbU, 0xbece84d7bdf11c7cU, 0xbe3d47d5bd670cb9U,
  0xbba7fb52bedd2118U, 0x3d005aca3d972597U, 0x3d7fca96bf2cb3feU, 0xbe012547be20298dU,
  0x3d4f0b443e0aa03bU, 0xbd00752a3e7f2015U, 0x3e46c5cdbdd76d1bU, 0x3f8a2bf83ce813c3U,
  0x3d546eb3be02c29bU, 0xbd935493bee58864U, 0xbb8e0fff3ef4d3b1U, 0xbed1dccf3dbf1b7fU,
  0xbdaeed5a3d993dedU, 0xbfad59473e06041eU, 0x3e2f68d53d74350cU, 0x3e44af063e38fdd1U,
  0x3d1815bb3f0b193dU, 0x3f0a8680be4f843aU, 0xbc87b109bdae3db9U, 0xbe6136a9bd93d7bcU,
  0xbdcd78613e1cabb4U, 0xbfaaf8a6bc589963U, 0x3da32fbabdcd36f3U, 0xbeb95d0c3def3934U,
  0xbf67844b3df83757U, 0x3ebc5b753e44264aU, 0xbd9c90b83f31c9ceU, 0x3e4349363dc6a29aU,
  0x3e1d7c813f4bb0bfU, 0x3db642ddbdb2a4f8U, 0xbe8dc303be150b01U, 0x3e31875a3cc22b26U,
  0xbd6a8de6be46cfa7U, 0xbc893f58bdf7d90eU, 0xbcd633143e5493d7U, 0xbcdd549a3da04643U,
  0x3cbf4891bdbee214U, 0x3e2d14f43e3965c3U, 0x3d613ca53c8e7911U, 0x3e8aa66e3e01bb4fU,
  0x3d78ee67bf01c47dU, 0xbfa936a3bf1d0593U, 0x3de93e03bf1ebf1fU, 0x3d87546cbe869f0fU,
  0xbfb4842b3df7b6beU, 0xbd73a1c63db19220U, 0x3d730742bc045771U, 0xbd25564bbd8eb56fU,
  0xbf9b2d59bf199b3fU, 0xbf014b19bef389a5U, 0x3ea7cbf5bf0bc8afU, 0x3d39b7a13e34da27U,
  0xbfa8c4363e870a5dU, 0xbec2f4dbbe4d7abeU, 0xbe23491b3e1edda2U, 0x3ddce7e03e09da5fU,
  0xbdd441f43ccd6de9U, 0x3cb2779bbf911fffU, 0xbef67abe3eb4ca6bU, 0x3dac2839bc8830c5U,
  0x3e020f44bf23ea5dU, 0xbe58162f3db15874U, 0x3d8d9ef9beb979f4U, 0xbd7a9f533992ae95U,
  0xbdb7b9bfbf40ef49U, 0x3dfbc4a7be94f7b5U, 0x3caf113fbf396f97U, 0xbdf5a38fbe464223U,
  0xbda6d7ca3ca5cd4aU, 0x3e6d62db3db1b2bdU, 0x3dea197dbe20ec9dU, 0x3de5c54d3d31db6cU,
  0x3dd7410ebe5be440U, 0xbef817ffbf7e111aU, 0x3ccc49afbe8ffdbcU, 0x3c9f9572bd80eb68U,
  0xbf10a00b3bd7ad03U, 0xbea07f403d8c318bU, 0x3c5d7f0bbe9b837bU, 0x3df198c7bc862b48U,
  0xbe96ba57bc453963U, 0xbde68ef1be421611U, 0x3e3fe9d3be370427U, 0xbe8da313bd971f09U,
  0xbf80869b3dd6fe5fU, 0xbea1014abf96805eU, 0xb9f68afabe9f27eaU, 0xbf3ea70a3d95c0e3U,
  0xbf76b8a33dc34bb7U, 0x3ddf53dcbf09751cU, 0xbf49970e3e6f0e91U, 0x3e2c6d673e363517U,
  0x3e1392bdbe1ca4baU, 0xbf56093c3e1e3edcU, 0x3d840894bece058dU, 0x3cebebadbe8825ddU,
  0xbc8dd529bf68ba13U, 0xbefdf84bbf5a654fU, 0xbeaa8346bdf16d57U, 0x3df28a57be3d8434U,
  0xbc82e72a3d45ec4cU, 0xbd5a8f033e58582bU, 0x3d0a8bf4bde25182U, 0x3e58ed8d3d8c4fddU,
  0x3d977163be289bb1U, 0xbee92d28bf23b517U, 0xbd311f3a3e974b48U, 0x3e1e62ca3d0a9069U,
  0xbe50f2e1be2dc64aU, 0xbddf8db43e9cb120U, 0x3de0bef1be359fb0U, 0x3e1cb9e43e6be5ecU,
  0x3e15ada63e768d3fU, 0xbdb7120cbf3bb1c9U, 0x3e57d77abe6dab04U, 0x3d159b2d3e2c0060U,
  0xbdc3db3c3d3a9d09U, 0xbf0ede60bead0d84U, 0x3defd5ed3cdbc5c0U, 0xbc9e9391bdf237e8U,
  0xbef0d28c3e533351U, 0xbd94b66fbf091d88U, 0xbe99240b3f0dd14aU, 0x3d0709333edf1c7aU,
  0x3d090bd13ec9b1f0U, 0x3c42470f3e5275c3U, 0x3c1197c2bcafd17dU, 0x3ef56dbabe96e99eU,
  0x3e1237dfbf70cff1U, 0x3daf0101bfb01fbcU, 0xbc697e9a3de7bce0U, 0x3eb724ac3eafb393U,
  0x3d8d49003db8e1a3U, 0x3d6bee113e8f2fbdU, 0xbe09d4213e138354U, 0x3ebb735e3e22ab09U,
  0x3c29da88bf769b36U, 0xbf848f9abebfbd40U, 0xbf569bf3bf5f9c4dU, 0xbda6ddd43e763f28U,
  0xbfc433a8bc96a896U, 0xbd1d527a3d936a24U, 0xbda2053dbdbc3255U, 0xbdbb5ccf3d8e9777U,
  0xbf4dbc46bf81c567U, 0xbf2edc04bfd5eeb9U, 0xbe158ea3bf978582U, 0xbdaae1603eadea24U,
  0xbf756e56bd2d04f2U, 0xbd96bd303ea6f01aU, 0x3e181f7fbe89b7e1U, 0x3e90bc363e0e8f73U,
  0x3c8fcf68bd8c9c58U, 0xbac595f4bf3599f8U, 0xbf9dba8c3ee6200aU, 0x3e2a8a9b3e5d9c64U,
  0xbe3b8fe3bf1c219dU, 0xbe0059c33ece880dU, 0xbd4b6b583e1ae130U, 0x3ddac4bdbe2ab836U,
  0x3dc4086dbf4a4243U, 0x3c99da4fbdd01845U, 0x3e07d2e9bf27f7aaU, 0xbc10753fbe488004U,
  0xbe969b36bdf84ddbU, 0x3e06cac33e921653U, 0x3e6f8db23e6b9f62U, 0x3d9345babe2bab5dU,
  0x3dd775f23e73435fU, 0xbe564e49bf259461U, 0xbd3964dc3efc127fU, 0x3d6293d23db87455U,
  0x3d0089d7bd3a6823U, 0xbf3f5961b9efc9f1U, 0x3d6f5f5cbecca87dU, 0xbc0c663b3ce9b5dcU,
  0xbe45ecae3ecb1e0cU, 0x3df07839bdbb2979U, 0xbe12ad5f3deaaa41U, 0xbebb5def3e438b69U,
  0xbc58da63be066d8aU, 0xbc669e36bed65e8fU, 0x3ec8a7febf2a831eU, 0xbe93980ebe4af763U,
  0xbd83f1b83d791760U, 0xbd98284cbd14f939U, 0xbfd879f4bd3ee52aU, 0x3d65a0e53dbf3b56U,
  0x3e3c41623ea85851U, 0x3e09f7c03ef560baU, 0x3db23ef83f2da367U, 0x3e24123d3f026cccU,
  0x3f35bbedbf93ec2eU, 0x3e242e883e19f1a2U, 0x3dbb8337be0b50d0U, 0x3b836b40beb3940eU,
  0xbde31b54bdd5a270U, 0x3e30aa1e3eb6263fU, 0x3e5961603f0eb937U, 0x3e3d3348bda5a99fU,
  0xbd5df96cbdd0621cU, 0x3d5a6fbc3e88f871U, 0xbec8f47bbd85c79cU, 0xbec2270bbf5c29e5U,
  0xbf350c3fbe33cb92U, 0xbea0b3fe3e8e0423U, 0xbc7fd91ebf2cd54bU, 0xbd39f0283dff5da6U,
  0xbc947a98be0a5335U, 0xbe2041fcbc84a13fU, 0xbf41fa5dbeddebadU, 0xc002227cbf2a5b0fU,
  0xbd458827be78fb21U, 0x3d9a54d7bfb5063fU, 0x3eff9d3fbe89d651U, 0x3f083946bd116315U,
  0x3e877ce2bd138d01U, 0x3d64059f3e2ccdd6U, 0x3d08ab9a3db85abfU, 0x3e8a69543f0cab67U,
  0x3d9c2a9f3d7c9b13U, 0xbf017087bf805e0eU, 0xbed492ddbedab3d0U, 0x3ded3812bf013271U,
  0xbe120896bba97818U, 0x3e8fa5183e07b5a8U, 0xbd0dc2c0bdb3f51fU, 0x3d3a4943beb1a8f2U,
  0x3de62192bd897b56U, 0x3de171ecbd26a730U, 0xbe2f4c2b3d698446U, 0xbe2305053d631624U,
  0xbdfbbeeebe49d35eU, 0xbd4d2ce6bf8fca18U, 0x3e2c5dbb3e5553ecU, 0xbfcdd7163a77c0daU,
  0x39b9b89cbdcd5180U, 0xbf8c9d993d1bb33eU, 0xbdc0983dbf982426U, 0xbd2fa015baccd4e6U,
  0xbd8d42aa3e8c5576U, 0x3e990526bf6da12dU, 0x3e471b33bdc6338cU, 0x3c342c35bef74a4bU,
  0xbeb6a1343e81970aU, 0xbe4124d23d84e2c2U, 0x3efd6fbc3d3dbb8bU, 0xbd809cd63ea86f87U,
  0xbea9b29ebda92a2aU, 0xbcab51bdbdd48851U, 0xbfb561a7bebba937U, 0x3d80703c3d7094afU,
  0x3e85bd7c3e69785dU, 0x3ccf7882bf6b6e5bU, 0xbf8bb0c0be289e03U, 0xbe64ae083e056e66U,
  0xbda801d5bfcb3db0U, 0x3d4e82db3e42b5a4U, 0x3dfbf5943e221e1aU, 0xbcd9580a3ea01b39U,
  0xbc919a1bbe7d2bf0U, 0xbf8a4ccbbef1dbf5U, 0x3e609e63bea4dcb8U, 0xbf8aa37ebdd5f372U,
  0xbddc07b33e27a926U, 0xbe2237603d008918U, 0xbc076cccbf607384U, 0x3e9c70063c8d014bU,
  0x3d91ed45bd227022U, 0x3dc7a926bfe7d9f3U, 0xbcb26c2d3d0a47a1U, 0xbe7e4967be46162fU,
  0xbdc0cd9fbec4042dU, 0xbf89c0163ee8f98fU, 0xbdfd44d1bf18f0c7U, 0xbecce0103d5b68b4U,
  0xbd4f9d0a3c64d952U, 0xbbbdd07c3ec84716U, 0xbd5734b73e536a6eU, 0xbe730419bdcc23f9U,
  0xbe60ebcfbdd56e42U, 0xbdf8e922bdb783f3U, 0x3e0172edbfa67694U, 0xbf910c13bf3b2e8dU,
  0xb812eeb0bf3c3ef8U, 0x3de9ac7dbdee8dfbU, 0x3e1870183e998e19U, 0xbdbbe9f43d696379U,
  0x3df65dfc3de5a6b2U, 0xbf12cdf6bc804730U, 0xbeb0f47cbeabecf9U, 0xbe3a5e08bd060ea6U,
  0x3d06caadbe281995U, 0xbd460b76bebb2d26U, 0x3e57b187bb7e64e6U, 0x3d896e1cbe1b48a1U,
  0xbf0f7e1fbd9a95ceU, 0xbe6951f83e1545e2U, 0xbea051653f67198eU, 0x3dc43796bce65a9eU,
  0xbd3c5e8dbe408fd1U, 0xbe5127473c522d82U, 0xbf09472bbeb36c1dU, 0xbee91a2dbf776812U,
  0xbe47b2f63f39e5f9U, 0x3f3ec0cebe044e07U, 0xbd91a9bfbc82d659U, 0xbd8f40c4bd698f13U,
  0xbe9837eebdd9ed2bU, 0xbf0a8bdcbe5c3965U, 0x3e14106f3ef97ac4U, 0xbe939b6bbc845e12U,
  0xbf6679d0bf3159a8U, 0xbf13400b3dc74508U, 0xbd51e2133e1a6a74U, 0x3ddad72c3d0fbacfU,
  0x3d7762033f2ed980U, 0x3e5d333bbd89c5e9U, 0xbe83e1b5bec89d9cU, 0xbf745bb23e88f038U,
  0xbbd355813e44efb3U, 0xbf09b5b8bcc82173U, 0x3cd888723e7dda41U, 0xbfa12b06bd016343U,
  0xbf337818beec197dU, 0xbc8a6db8bec5b1ffU, 0x3e85805f3cca516fU, 0xbfa3778ebf052f1aU,
  0xbffb7d623cae3b48U, 0x3d7e9e893ecb5aa1U, 0x3c10ce2fbf9f950dU, 0xbe1018a2bdc6ab40U,
  0xbceaf506bfecc638U, 0xbebb31f8bd15f933U, 0xc016802fbe66df55U, 0xbfbc8af8be2337b6U,
  0x3dfae155bf85c47dU, 0xbfb7cd093ecda490U, 0x3e05c9f23e1d82a4U, 0x3ce79c1dbc96c77dU,
  0xbd699e46beb1117fU, 0x3d7e62f73c7f989bU, 0x3d03a1a4bed9bbd7U, 0xbbe87b79bf01eb14U,
  0x3e5cd80bbfbae721U, 0xbf53bffa3d996c07U, 0x3e95bfbdbf71f29cU, 0xbc01896d3cc84dadU,
  0x3d1d3da6bf9b69abU, 0xbe2b1b18bd6e289bU, 0xbde69deb3e227f3dU, 0xbfab4e17bcf9488aU,
  0x3cc4e68c3eaba9e0U, 0x3cde1422bcf2181aU, 0x3c031c84bf07c41bU, 0xbd4e90cabdee1996U,
  0x3daedc453ddcf6eeU, 0xbf8185613d6626b6U, 0xbec50dbfbed69b7dU, 0xbef6bf733dd323ebU,
  0x3ebd3b91be8a6efaU, 0xbf1fe0c33e1e727cU, 0xbd6845bfbf7f1600U, 0x3d00a31d3d61002aU,
  0x3e7537a03e8fbbc2U, 0x3c284f78bfc80a25U, 0x3e85a834be944156U, 0x3e8a415c3e212c64U,
  0xbecc3323bedbecc2U, 0xbf881c1ebe951d25U, 0xbe50762cbc4aa130U, 0x3c967f08be83689bU,
  0xbe94ef1e3e5243dbU, 0xbe83556dbdcd0fa8U, 0xbe1216a2beebc356U, 0xbee3d03c3e5a12dbU,
  0x3d2eb9de3e3a4e56U, 0x3e350e6dbfdb2ed7U, 0x3ec9b3cfbedbfe01U, 0xbf8d5210bf85b457U,
  0xbe288275bf403728U, 0xbcee3f03bf29ea33U, 0x3e10475b3d7a6d1bU, 0x3e93888d3e57b841U,
  0xbd2eb6593f0f3601U, 0xbf81c8a3be9c8204U, 0xbf93b222bf49a26cU, 0x3d71a2dd3b8fb864U,
  0xbe8e8551bef18314U, 0xbf139857bfeefe5eU, 0xbf151c3abfa4f8fdU, 0xbfaa5b19be9d0a6dU,
  0xbe2c947f3db88911U, 0x3ed83616bdb8d36bU, 0xbea46fa5bf8778e1U, 0xbd18ddc7bc9fba7cU,
  0x3f5ff98e3e0040cdU, 0x391d721cbf2cf5e3U, 0xbe4a58bcbe3a84c5U, 0xbefeb5a2be807255U,
  0x3ceb65e8bf46f254U, 0xbf9a2d68bda7e001U, 0xbeea622b3eaa9880U, 0xbc422444be4ee153U,
  0x3d92761abcc42c0eU, 0x3d9a955f3c8ce02aU, 0x3e05ce5abfbeb9ecU, 0xbf651480be141146U,
  0x3e0b81f7bf30a0e7U, 0xbea3576c3eb252b6U, 0xbd18a287bf60cb81U, 0xbf274ca0bf7a3ecfU,
  0xbe0e8135bf86ef72U, 0xbf667386bee6485bU, 0x3c56895dbdf630a7U, 0xbf2c763a3e0d77bdU,
  0xbebfca90bb72314aU, 0xbfa8ed26becc98f3U, 0xbf00d947beb9d7acU, 0xbd45a150bdb97c50U,
  0x3d3fec353dd4dfbaU, 0xbd85717bbf0e49b9U, 0x3dda86cd3d3686b7U, 0x3db42c243e5255e4U,
  0xbf45d4a63d699b06U, 0x3e943520bef1e057U, 0xbd54eab83ea1968fU, 0xbe7b89bcbcbab806U,
  0xbe26714fbe03c98cU, 0xbf3751cbbc260822U, 0xbf097c3abdc6bd3cU, 0xbf3ce17ebfb5ca88U,
  0xbe92d33c3e855de8U, 0x3f09bfcb3df7e8e8U, 0xbf17317b3d0d53cfU, 0x3d9d7989bde6581dU,
  0x3ea223dc3de6a92fU, 0x3cdfb4323c43087dU, 0x3d5d6cc33ec15fa4U, 0xbf2aaf863e029245U,
  0xbf079b69bf48998aU, 0xbf1928d93df5eb90U, 0x3eb467b1bb7d43caU, 0xbd5a64183df27fe0U,
  0xbba968123deff9c0U, 0x3f29683dbe436b86U, 0xbf76d8e8bf1ddc7fU, 0xbf8483cfbf6dd31aU,
  0xbc2e2324be14c403U, 0xbf9489ca3e37a64cU, 0xbedfc5703ece6919U, 0xbff33d5d3eba65aeU,
  0x3ccbaeaf3e321eebU, 0xbe679aabbf44d9f1U, 0x3e0598e7bea0661cU, 0x3d66297c3d9be3a7U,
  0xbe3ac1913eb7b7edU, 0x3e834a473f24a971U, 0xbe12304a3d87eb2dU, 0xbe340352bfa0e3abU,
  0xbedfbd01bddeb4c8U, 0xbf0a0006be8d2989U, 0xbe2ccdaabe7dd2abU, 0xbec575e8bf23fe32U,
  0x3dd15bb23e56ebbcU, 0x3e4976ab3f012ee9U, 0xbc949a0a3d6347a2U, 0xbd335ac73caea105U,
  0x3e03b666be01e9fbU, 0xbf01fc5dbe12f077U, 0xbed395733da8f2d1U, 0x3f334cc6bdf002d9U,
  0xbeebd9a4bf1ff742U, 0xbf35f7e23e749470U, 0x3ecd838dbb0c34f4U, 0xbe935a0dbeb8a158U,
  0xbdb33a853ef37690U, 0x3e6961e2bcd2ed90U, 0xbd648804be96fc92U, 0xbf704dafbf3ca154U,
  0xbfa8908b3ea57141U, 0x3cae6e6dbcec0c14U, 0x3eb68d143e3735b5U, 0xbf0030f5be01d14eU,
  0xbe9a19ebbdd1d7c8U, 0x3e380c5b3d902208U, 0x3e3785803ebe4634U, 0x3e165d9bbd5860e9U,
  0xbdb41cd93d6e15aaU, 0x3d006de8bd5e2e40U, 0xbda912d83d31c8eaU, 0xbb79ae9fbfb74931U,
  0xbf70b938bdd49023U, 0xbe503cc43e662800U, 0xbc85fb32beccd04aU, 0x3e06204f3d3d5297U,
  0xbdbd68733eafb596U, 0x3c94a5fabe21fcafU, 0xbf2152a7bd4e6cbcU, 0xbfe7f0aebf66fa19U,
  0x3c484121be8a5ebaU, 0x3d40eaa6bfa4c428U, 0xbe8d49a2bcc9a983U, 0x3f488c43be6e1462U,
  0x3c309eff3e720106U, 0xbb9825703c0b023eU, 0xbd89890f3de2376dU, 0x3e35e2203e920735U,
  0x3c8ceb25bdd04a42U, 0x3db8795dbf4fcc43U, 0xbe8f47c9bf5e81b8U, 0x3e3a433fbf2abcd9U,
  0xbf61f68f3e2fc39dU, 0xbd517fd63e8e01a7U, 0x3e3cf171bd9b78c1U, 0xbca570b6bef7148dU,
  0xbeb3ab0d3f3a0563U, 0x3e15399ebc93078cU, 0xbdbbd6ae3cbb64c7U, 0xbe7248c5bef3350dU,
  0xbcd23968bdb04272U, 0xbe66abbf3e03e2f8U, 0xbe114c0b3f0f7e12U, 0xbeac053ebd923274U,
  0xbe06b2acbd5ac49bU, 0xbd812d753e0bda96U, 0x3d0144c3be8d43ffU, 0x3d18535c3f40a27dU,
  0xbe35f1553e0751f8U, 0xbc6b503e3ea3d33eU, 0xbdb08346be1e1a49U, 0xbe22f08ebe71b34eU,
  0x3deeda3d3e3ac73bU, 0xbc01c970bde56e8cU, 0xbdad2c21be975957U, 0xbf20ac49bd687bf1U,
  0x3df896a23cecfe52U, 0x3e06ca6b3e12f07fU, 0x3d9b77d03d7cc380U, 0xbdfa89a3be009e67U,
  0xbe80efaa3e5da996U, 0xbedfde26be850f98U, 0xbe399293be451d34U, 0x3dcb388d3df7d86eU,
  0x3cdbf79c3eb6fbafU, 0xbcffb188bf136c22U, 0x3d1140d0be594ce1U, 0xbf28ec57bde813a7U,
  0xbfaeeb1ebf41e645U, 0xbf96a4123d9737b9U, 0xbe8d7474bf9990faU, 0xbe69978abfb6a7efU,
  0x3d9f97d8bd93381fU, 0x3d754ef03e3b1900U, 0xbcac06c9bf07ed02U, 0x3d389ca93df99c3fU,
  0xbd7c50d6bd87fa43U, 0x3d5f240dbef00177U, 0x3e1721c63e9c2943U, 0x3d2df7513d90fc66U,
  0xbdb75246beae6a82U, 0xbf2ef514bd18eafeU, 0xbe276972bf6bfb57U, 0x3c4a29553da52ab4U,
  0x3c8b9c3cbfd51b48U, 0x3d99631cbc459025U, 0xbead4a73bec11ee9U, 0x3de4c014bfe0f275U,
  0x3d9f1a733e2abae8U, 0x3d07fcdebd71f9ecU, 0x3e5190dfbf6475abU, 0xbfb0f94dbfa4ddb5U,
  0xbee87b53beffa574U, 0xbc7ec6073d2e0f05U, 0xbc7146873db8a170U, 0x3d836a8b3dd55334U,
  0x3e0409aa3e372ac4U, 0x3e75deccbecf43eeU, 0xb99b7dd23e270b46U, 0xbd5c2a1e3e08016bU,
  0x3dc04293be9dc05eU, 0x3dd571bf3f2241ceU, 0xbddd34353e1a3f72U, 0x3eb34252bd091140U,
  0x3e3883fbbeadc49bU, 0xbde7581fbee260c7U, 0xbd525c343e99ed54U, 0x3e072116be414ab2U,
  0xbdb37dce3e113c3bU, 0x3d599de03e0cb983U, 0x3e6cc2b53e4474caU, 0xbe36adee3d9acf3aU,
  0x3c0456d33e1bb8f6U, 0x3ecd754dbf264134U, 0x3d42b8843c422af9U, 0x3e2c2696bc8f1ed4U,
  0x3c5cdc703e52e6a5U, 0xbf3e5275bde14c05U, 0xbf32cf97bd27117dU, 0xbe764c463da20021U,
  0x3e43705d3e2a10f6U, 0xbc910d04bf682118U, 0xbd22ce10bebbf9fcU, 0x3e57e1ce3e594e45U,
  0xbf0ca7c73f0133c1U, 0xbf8f4ed43dd70af7U, 0xbea13832bfd05d12U, 0x3ee637f6bf9b6de1U,
  0xbe705455bd1b595eU, 0x3e9d2920bfe6150aU, 0x3e1b56683e0e8869U, 0x3e0f460a3dcf7fb5U,
  0x3ddcb09a3e0ac809U, 0xbedde1cabe9d0d95U, 0xbea0e6d7bfdffbb2U, 0xbde1bfb53e01aa72U,
  0x3d962b1ebf96f76fU, 0xbe645f32bf1b232fU, 0x3e233df2bfa3009bU, 0xbe286da0bd03e9d3U,
  0xbef45e743d3fb32dU, 0xbda5bd92be0b279eU, 0xbd27435a3da0e331U, 0xbda07f4a3d9fcdaaU,
  0x3e64b53dbf90f564U, 0xbf942691bf7d4c56U, 0x3df064f7be01e489U, 0xbaec615dbe0d6b4dU,
  0xbe2c74af3d77617dU, 0x3d5739793df4666cU, 0xbf7730e23de70d04U, 0xbd9ae2193e1a52cbU,
  0xbeeff64cbd7a1a47U, 0xbd6b2d21bf83b876U, 0xbfc76c4bbd0514d6U, 0xbed47a43bf44126fU,
  0xbe8bb8adbfb3932aU, 0x3f1f4b86bdb3a562U, 0xbe749830be9b82b0U, 0xbdc721533ef0482bU,
  0xbe3975c9bf8202b9U, 0xbeb7bcdcbeca8e5dU, 0x3e7359adbf33389dU, 0x3d24b5e3bfaf4cdbU,
  0xbe3f2d1cbdd6a4c0U, 0x3e6003f93e4eb3c5U, 0x3de0cf1ebe038388U, 0x3e8b03d6be60ab23U,
  0xbdf1fa303e0891b7U, 0xbdf9e4d73e36729aU, 0xbe4d8eefbbd3e880U, 0xbe252871bfcb798cU,
  0xbf7d49b3bd65f06fU, 0xbe84c0573defc64aU, 0x3de08d99bf21dd82U, 0xbdf21e55bd45c99eU,
  0xbe8453d4bdbf56efU, 0xbd70214c3dd6a505U, 0xbeb7d123bf000a37U, 0xbff82115bf2a71b8U,
  0x3b875019bf467301U, 0x3e150a32bf958b1aU, 0xbf4dc688bf00ed1dU, 0x3ee50343beb12223U,
  0x3e143c8f3e1f8f22U, 0x3d9685dbbbcddf1eU, 0xbc4c56a13ef8c69eU, 0x3e8229ac3e13b3faU,
  0xbe482f57bdfcce54U, 0xbe2ea5b9bf75bf3fU, 0xbde215b0bf08f75aU, 0xbe2b303fbf087270U,
  0xbf7de2823e8e1dc6U, 0x3ea473c43e6e6189U, 0x3e48d795bcd8f855U, 0x3e7d2d4fbf8c349aU,
  0xbfdf661abfa45f29U, 0x3c3b68ea3cee3147U, 0xbc9a854c3d20c35aU, 0xbea915a9bfb1794dU,
  0x3dbe3bcdbf0cc278U, 0xbaa183ea3f84aae5U, 0x3e4a40bb3e75c4a8U, 0x3e7e0e93bf19c5ddU,
  0xbe409cbcbe3f050bU, 0x3db17b213ceef89bU, 0x3e68a8723aa42841U, 0xbd85db783d6f7d0cU,
  0x3ece54d53d1b7331U, 0x3da817ee3e922a90U, 0xbe1eb9783cae0f43U, 0x3c28f37a3ddd5070U,
  0xbcef12f7bf9c3217U, 0x3e8e0fce3ebc0d45U, 0xbf66d6cbbf0b01e8U, 0x3ec31c29bfa6e540U,
  0x3e06e2b13e405608U, 0x3d5aec693e1507e9U, 0x3f1f47cdbef06006U, 0x3ccfea7cbc096256U,
  0x3cb85f403cb73e9aU, 0xbea982623d92954eU, 0x3eaa156fbef136b1U, 0x3d2dd6a2bc780701U,
  0xbf35fe2f3f4f4609U, 0x3d9611483e1238c4U, 0xba1e5d993db644a1U, 0x3c3daf0fbf465be9U,
  0x3db85ca43da72e4bU, 0xbfe7b22f3e105372U, 0x3e95f900bfe4c70cU, 0x3e9505513d0894ddU,
  0x3e07eabc3e2774fcU, 0xbd8c0dadbe96566bU, 0x3dabd512be81a360U, 0x3e8f743cbf4c22f8U,
  0xbf9675ec3de979adU, 0x3e17cf05bf9a3892U, 0x3d3df43fbe0bdd80U, 0x3e4d5fdabd59a7dbU,
  0xbf194408be8cb445U, 0xbf0742743ec2272fU, 0xbeb6eb31bf82c418U, 0xbd8df0a4ba634f91U,
  0xbf96f603be4cd276U, 0xbdbd2551bf011610U, 0xbdc436e73e9d2c53U, 0xbeba12b2bdcdfab3U,
  0xbe26e7c93db1f6beU, 0x3df3ca783eaa2555U, 0x3eb407573d1a319eU, 0xbffa1d8abff49723U,
  0x3edee909bf0c8a1dU, 0xbf0ccdbbbdeed5dcU, 0x3d20a96fbe41581eU, 0x3e8ed6903ecf82f1U,
  0xbf1ff1243ec45161U, 0xbea2be6fbf546ab0U, 0xbe9ddfb4be807702U, 0xbdc7eda6beae4afeU,
  0x3de94cc73e619899U, 0x3dfd2eb73e067219U, 0xbd0f089bbd793113U, 0x3c9051a73e5a7e17U,
  0x3df35a473eebb9c2U, 0x3d93ac4cbf12b1c4U, 0x3d96b32d3e8a3712U, 0xbdbea013be2e46a5U,
  0xbd3fb34abb0c6307U, 0xbea7b87a3ea3ac29U, 0x3d5cf32abe58ce70U, 0x3df1e673bcc917b2U,
  0xbd8598d33e8f0f50U, 0xbd8107063eebb089U, 0xbe21180a3ec6e584U, 0x3d890c31be3ae4b3U,
  0xbef2cc93be05262bU, 0xbf8298e6bf88c78aU, 0x3d93835c3f43a9abU, 0xbf8a36573da186b5U,
  0xbf8247873d8bd3e4U, 0xbd09a4563dbf9753U, 0x3eb39c523e67fc1eU, 0x3e1df7063dbdf54eU,
  0x3d791eee3e4be445U, 0xbe821349be1b3c9fU, 0xbe75e635bf9d82d5U, 0x3cd5f64ebe11fbfdU,
  0xbe29833abca4b4b8U, 0xbfb7905fbf4811bdU, 0xbdeff0bd3e84db2cU, 0xbd29c2873ea2a2f0U,
  0x3e01df0dbe0b192cU, 0xbf80fb0d3dc3518aU, 0x3bfbe17bbf695871U, 0x3e5ae6ac3dc0f3e5U,
  0xbd7e3d293f04c215U, 0xbf30e5f5bf58cc55U, 0xbea202cebf81a387U, 0xbdf76d27beb8d209U,
  0xbf6ed547bbd50df8U, 0x3e8854bcbfa6561aU, 0xbda45e2d3e419f0dU, 0x3d415b4db9d4fa03U,
  0xbf41dd54bf5fffcaU, 0xbfc171563f68c4b1U, 0xbe3c266dbf942856U, 0x3e29a9853e195b00U,
  0xbf4a07c43df6aa81U, 0x3d4c40923d8f8562U, 0x3e5a39023ed49a04U, 0xbefc8f293db6553eU,
  0x3eb16c7f3e0e1b1bU, 0x3e04fa6c3efeac49U, 0x3e99a60c3e6cd0f5U, 0xbf9553e4bf8b1a93U,
  0x3d836ea4bfc62c3eU, 0xbf5d62d23c2e8d43U, 0xbe07ccf5be50accfU, 0x3ae028863e82f76bU,
  0x3d310965be8b6a56U, 0x3ee531bf3ea18f47U, 0x3e56df74bf7430cfU, 0x3d23330abd94514cU,
  0x3df84e3b3f190ccbU, 0x3d941dbbbd6ebbbfU, 0xbcc66f203d1109fdU, 0xbe5c1a80be686b2cU,
  0x3dd61bfb3e32a2a8U, 0x3ec0ed6abf03e166U, 0x3d62d8a73f408e85U, 0xbd403e643c71dbd5U,
  0x3db5050d3e50d5cdU, 0xbf35660f3dea494eU, 0x3e17c7c4bdbedf12U, 0xbdd7e1f5bdd11b52U,
  0x3c59bed63f7e6c53U, 0x3f8376243e2cc9fcU, 0x3e49dd5cbd6889aeU, 0xbd4c4e0abd433655U,
  0xbe728e1d3c91a4a9U, 0xbf904e2cbf3d5acbU, 0x3e8ede4abdf70526U, 0xbeece48c3d78b394U,
  0xbf6b59c7bc58bd9bU, 0xbd6085a3bcca3914U, 0xbea05f42bdf408e8U, 0x3cfc735a3ca38a79U,
  0xbdc3389a3f7ded25U, 0xbd5ebc4d3cc94b19U, 0xbf840d35bf148dbdU, 0xbd3da2673d5f7887U,
  0x3ded6bf5bf265cbbU, 0xbf05c4d7bdc98f58U, 0x3d07b39d3f2aed0eU, 0x3c0c8c82be8763a0U,
  0xbec4e3fdbf0b1a2aU, 0x3cf55ca7bf902a1cU, 0xbfb3d646bd082f65U, 0xbf9acb94beef6feaU,
  0xbfbab6933e40780dU, 0x3ce1ee76bf4745b8U, 0x3cc010b5bfb315f0U, 0xbce265a73dd0ae13U,
  0x3d99f493bf951f6bU, 0xbdb0bb2b3dd37a86U, 0xbfbf9946be0d7a0cU, 0xbfc986ba3d91a339U,
  0xbd2b0680bf817249U, 0xc00282a2bf828196U, 0x3d89ca4f3db2e8b1U, 0x3c3b444f3ced8c32U,
  0x3b3c399abe84d2b1U, 0xbc2f9f82bd1975b2U, 0xbda911afbf532f81U, 0xbdb69b5dbee27622U,
  0x3e417313bfc56ce7U, 0xbf25fed6beec3274U, 0xbfafb81bbf28ead6U, 0x3d5502b33dd33bb9U,
  0xbcecaa71bfd77e39U, 0xbe30af3ebd4a38c0U, 0x3c9a115b3dd825f0U, 0xbf993794bb9d9579U,
  0x3d819b11bfbbf119U, 0x3dc9b099be10dfceU, 0x3dc1a22dbf4ab6c8U, 0xbd63f69b3c257252U,
  0xbd4248263bd88917U, 0x3e2353e1bdaac89aU, 0xbf2333893e88a3eeU, 0x3c488c02bcf11a87U,
  0xbd019f0ebe6ee4ccU, 0xbe06d1babe9c819bU, 0xbea824423e53c85fU, 0xbede561a3dda7f69U,
  0xbde9843ebdb9f1e9U, 0x3c467456bde89857U, 0xbdaa1d673d23f622U, 0xbe0bdb2c3d0adcd6U,
  0xbf3aecb83e2c699dU, 0x3dc97231bf8e7c66U, 0xbdc67f18bf433a84U, 0xbe5e28ea3e66e247U,
  0xbf3ba3533dbe812fU, 0xbc8e57cd3dc5db26U, 0xbea3dd083dbbaec9U, 0x3b752ba8bb60cf05U,
  0x3e16883ebc25396fU, 0xbd808052bfa77e02U, 0xbe81810abc830af2U, 0x3da10eb03e9b542fU,
  0xbffac98e3ea182efU, 0xbf603a603e675d21U, 0x3c919fa8bdc109c7U, 0x3d82fccebdc3abbfU,
  0x3e95174ebe0e8da7U, 0xbe2f6168bfcaa484U, 0xbda407b53e8712ddU, 0x3f55e9acbe19b772U,
  0xbba9bfe63e46ae71U, 0xbe36754fbea57470U, 0x3e3d9bbabec865e0U, 0x3df2612dbd9863daU,
  0x3d958ccebf02d2bfU, 0xbfabd59f3ebde23fU, 0xbde1d527bf785149U, 0x3de37adebcbede2eU,
  0xbfcb09023e3429efU, 0x3d0045f1beb96315U, 0x3bf9e3f7bdd5da04U, 0x3c0acd6ebe735fc4U,
  0xbf75f9dcbfa14353U, 0xbf8481a03dfbd04aU, 0x3f039975bf1dae88U, 0xbc4184ccbba765c1U,
  0xbf99160a3d886fb4U, 0xbe8df207be900b7fU, 0x3e93dd233e458aaaU, 0x3d0cd07b3de2f0e9U,
  0x3ca796b6bd97791aU, 0xbc7cb031bec035e6U, 0xbc8ee3b43e81ffc9U, 0xbe92d79ebe5f3a57U,
  0x3d0cba13bf8bd5d2U, 0x3de2a68cbbcb81e2U, 0x3df129c33dbc7d40U, 0xbdf661173dc7134fU,
  0xbdc8f1ebbe166b5bU, 0xbe0b5eb3bc4d7051U, 0x3e6fa9d2bf881fa4U, 0xbeb3b66a3a3c08e6U,
  0xbf5f9d8ebfc5d39cU, 0x3e31c7ebbfe7c990U, 0xbec27f343db0527eU, 0xbfacf3fbbf82a83bU,
  0xbec4a26d3de99ddfU, 0xbd2beb83bebe923aU, 0x3e333c21bfa7a00eU, 0xbd125cd83dd6ba47U,
  0x3c900742bf238c41U, 0x3e1800c33e4dc9a6U, 0xbe8cd7c53ddc22a6U, 0xbfe5e05fbf507c6dU,
  0xbd4d5b86bf83d297U, 0xbfc3ad2fbb2db093U, 0xbe2d8a623df39352U, 0x3d0c4edabbf2514fU,
  0x3e538348bf0dcaf7U, 0x3c7fa2693ce54e03U, 0xbe17dcabbf26c7a0U, 0x3da2fa0dbf728870U,
  0x3e512ecebfe995faU, 0xc0034000be914cd4U, 0x3e13cb64bf78f836U, 0x3da1a7123dddf759U,
  0xbe11e0a8bfab5043U, 0xbe1d220f3da3fabfU, 0x3da73471be135f63U, 0xbff025033c875666U,
  0x3e9978453ebcd433U, 0x3e72211fbd822893U, 0x3e0920ffbf04d307U, 0xbf21c0e3bdbea9beU,
  0xbc7a5aae3dcf35cfU, 0xbfa6e76d3deb0a98U, 0x3d8a6b46bf42ba76U, 0x3e797a6f3d97a3a3U,
  0xbe53137e3d808a1bU, 0xbe4bfe603e998603U, 0xbe5fb454bf8bcbd7U, 0x3e289b2cbf01b5e4U,
  0xbf2115e4bbb22924U, 0x3dd7e3afbf96b89cU, 0xbcf4f1503b577e92U, 0xbe5abdbcbd992330U,
  0xbf3439d6bf1354f1U, 0xbf9aa4673f8e4078U, 0xbde5f010bf90732dU, 0x3dc5d6f83cb61323U,
  0xbe2b5ece3d553d69U, 0xbe05a9fa3ec1ab14U, 0x3baac48d3edd4b04U, 0x3e420faf3d1ca502U,
  0x3e846e65be07ba66U, 0xbcd4ddfa3e4b670eU, 0x3d8a75983ee02c6eU, 0xbfa18fedbf9e06b1U,
  0x3e0930d7bf863646U, 0x3c938a403e06eadbU, 0xbc29fc89bed0c92cU, 0xbcd7a2253e469cbaU,
  0x3d644e4a3ebacd35U, 0xbe703fb13ec3568bU, 0xbd43ecefbf51b1bdU, 0xbc2ea20fbe226079U,
  0x3e2a45bf3d41cbd4U, 0xbd86ae473ddd9f29U, 0x3e26d218bea46645U, 0x3e5641e43db3dba3U,
  0xbcd6f312bf4035ffU, 0x3d2927043eda7261U, 0xbeef21e13ee8754dU, 0x3e3151ecbf03242aU,
  0xbea9dd6e3da6a768U, 0xbc2931fd3de0b5deU, 0xbc9a81cabe51c4a1U, 0x3cff8906bd366fc8U,
  0xbe9391ca3e1f2bdfU, 0x3ea0dfc43eebeaedU, 0xbf0c41babf8986ccU, 0x3d0a4722bf877b2dU,
  0xbfb269b03d617a38U, 0x3e0641d6bf9f0dbeU, 0xbec3e4c53f0c9703U, 0x3e7597b53d74fb1aU,
  0xbd974be33c0134bcU, 0xbd9e7d14be02f294U, 0x3f21d7d83d8883aaU, 0x3d359202be1fd230U,
  0x3e25f2993d633cb1U, 0xbe9cedd2bee1ddf7U, 0xbddb69b2bfbb4ae7U, 0x3d5fc8413f1adc27U,
  0xbf953c273f01ec43U, 0xbec8c83ebffc1aa0U, 0xbed2a07f3e2aa0e6U, 0xbdcecbe3bd931a1dU,
  0xbcbaa4b53dc78dc7U, 0x3e3908863e8290a1U, 0xbf3f050e3dd9a6ceU, 0xbdcbc5793bf4a2c3U,
  0x3d4f8c993daf02e6U, 0x3e80388fbe40a279U, 0xbb8781023ec21fccU, 0x3eb058c83d16a5d9U,
  0x3efa8df43e323e83U, 0x3e2038bb3dd8a717U, 0x3ddff5d43e64a7b2U, 0x3e6e08863d7423d1U,
  0x3d79bb693ee7854aU, 0x3edaf2babd2180aaU, 0xbce9cb243e6418e3U, 0xc014f42e3e6e0e65U,
  0xbeff3b05bb8ae1c8U, 0xbf6f42ccbee3961eU, 0xbd447b083b304438U, 0xbe845d3b3d267389U,
  0xbf45ef503dc78e21U, 0xbdb89be0be829428U, 0x3e3487f73e1a220fU, 0x3e77ebb93e80fc18U,
  0xbff7578c3ed28d96U, 0xbf0d22293da3b4b8U, 0xbf09a4fabfc9c120U, 0x3d7af522bed743cfU,
  0x3d8927903e583cadU, 0xbdb6f7f2bf74cc7aU, 0x3d80111a3e82f3cfU, 0x3e4f9c1d3e2dc31dU,
  0x3e1a917a3e8f1cc8U, 0x3e4b5034be4f2403U, 0xbe0458853e803ed9U, 0x3dbab8dc3e130becU,
  0x3e8cca0a3dd89094U, 0xbe0ab7f53e914adeU, 0xbe3f21d1bdb9b586U, 0xbd75108dbf16c6edU,
  0xbf38ce463e9c607fU, 0x3dbdc42c3e20e0f5U, 0xbdce30e3bea70d63U, 0xbcd5d4353dd3d02fU,
  0xbd0ea492beba6101U, 0xbe32d00a3de82288U, 0x3ea795a3beecf2d9U, 0xc0347604bf36bfc5U,
  0x3e1ad1babe36d6ceU, 0x3e78c8adbe8e30acU, 0xbee92a9a3de82a66U, 0x3f169a383e07eb8bU,
  0x3dc107c2be06539dU, 0x3d74a5933e6a825dU, 0x3d1115813df348ceU, 0x3d67183e3e47037eU,
  0xbec5a05fbd64a1abU, 0xbeeef281bf331168U, 0x3e6e3e4ebf1a8ba3U, 0xbe06bf91beeeab32U,
  0xbec3ac163e628b32U, 0xbd2b6c5bbdcc5f6bU, 0xbd1b32d5bd0bec4aU, 0x3e3ec0e6be993062U,
  0x3d1a98263d9014e3U, 0xbd8e052abdba8816U, 0x3e00e4d13da2b5aaU, 0x3e65ca8ebddcec25U,
  0x3dead10bbf4f652cU, 0xbd3029973f8152d3U, 0x3e584167bf6ac766U, 0xbe069082be29ef50U,
  0xbf75a1753db496b3U, 0x3c5f7ea53d28ed1cU, 0xbcaae87ebca60434U, 0xbd7465bd3d13ab91U,
  0xbf83123cbf43eda6U, 0xbf2256083e9059a4U, 0x3f21abc4bead1f4fU, 0x3d51f6f03e9d4232U,
  0xbf465c04be824301U, 0x3c8ceacbbe58661aU, 0xbfb34dec3c3399c9U, 0x3cf33111be1958e7U,
  0x3d295cd23de1656aU, 0x3d84d2613ec4669bU, 0x3eba0f203e55676cU, 0xbe2b5c26bdf5a755U,
  0xbde682fcbf4f8018U, 0x3e928ab6bdb6099bU, 0xbcd3c538beec4508U, 0xbd1cbc4b3e0c171bU,
  0xbf3fe05d3f188089U, 0x3d585a7f3e6cf9aaU, 0x3e76b4593d33656eU, 0x3e11cd47bf4e5132U,
  0x3e78d7b23e582935U, 0x3e4097783d813bbdU, 0x3d2009013e50b6a6U, 0x3ecd6ed83e3e3e98U,
  0x3e8961aebf337ef2U, 0xbf98779bbeefbd98U, 0xbf84d9cebf78909aU, 0x3d3cbefc3d96d4f8U,
  0xbfb4f16e3e8a4a26U, 0x3d68bcb43e0f60dbU, 0x3bb437563e07da95U, 0x3c152fb3be6090f4U,
  0xbf8a8e3ebf502185U, 0xbf7286e4bfbce76fU, 0xbe13f18dbf7c65b9U, 0x3c2494093d6b14fcU,
  0xbf8da7283e12e169U, 0xbe91980bbdcbb5b4U, 0x3e1ea9893ea29320U, 0x3ebd55cb3e34d71fU,
  0x3d80f2d6bd834a8fU, 0xbdebcebfbf692aa0U, 0xbf91d4c23ef0a3beU, 0x3dd61a9b3e2c1071U,
  0x3c551288bf939913U, 0xbf65493d3e0b8150U, 0x3dae31233e3f3850U, 0xbd4549d1bf7617d6U,
  0x3ddbb676bf32cd40U, 0xbbb0d1fc3a8ad9e3U, 0x3e0f6c7abf536f7bU, 0xbe254d19be9af4c6U,
  0x3e20a5fa3e29019aU, 0xbe0957fabebee5f6U, 0x3e56cbecbe20ad14U, 0xbe4657983e4c9b60U,
  0xbdbd1e30bdc3536cU, 0x3e5a3c92bfa3f833U, 0x3d3c271f3e14fed6U, 0xbf6634ecbcb6692fU,
  0x3e397d133cd0cf7fU, 0xbf4751f93cc8a363U, 0x3d2fdcf6bf28f397U, 0xbd8aba8cbcb6e157U,
  0xbecd9aeb3e6ebc0fU, 0x3e654e07bf59f921U, 0x3ea46d113d133e0eU, 0xbbeb7c2fbe7817f8U,
  0x3dbcbf6b3e182023U, 0xbda595823d8ed9e7U, 0xbde216a8bdc59db5U, 0xbf6887bc3e20021dU,
  0xbf061293be688a9cU, 0xbda2f6bc3e0f4c1cU, 0xbf76480d3ced5c83U, 0xbbd54586bde290d3U,
  0x3e3f44e23ed656e9U, 0xbe05237dbebddccaU, 0xbfaf41f9beb4b058U, 0xbe5645293e0bac93U,
  0xbe0d487dbfa9e6caU, 0xbeb21805bea7f39aU, 0x3b27c70cbdbf76a1U, 0x3be8bd433e96866fU,
  0x3e36afe63ca8c222U, 0x3c2ae0483dca28e2U, 0x3dd0e510bd58aecfU, 0x3e95a9a43e175897U,
  0xbe65d8a73e95160eU, 0xbfb7507ebea099ceU, 0x3d3c53cebfb39541U, 0xbe3505923df3e2c0U,
  0x3de9f37abea23e7cU, 0xbd97a1afbbc6eda2U, 0xbe0ae056be2a8cb8U, 0xbdd775fe3beaec0bU,
  0xbea37d7bbf7ead05U, 0xbf9edb69bc5b49afU, 0x3e23a1463df7b038U, 0xbe4d618a3e21f599U,
  0xbd4960e93d58cbd5U, 0x3d8fd2803ef81c39U, 0x3e830579bf666f43U, 0xbdc144733d7e117bU,
  0x3d19c15cbc344a93U, 0xbda260bdbd9380fdU, 0xbfa0fc6e3dde60f9U, 0x3d7781273d61e674U,
  0x3e2231a0bfc4bcf4U, 0xbda143ed3df99590U, 0xbe450ca73e787100U, 0xbd8cb3753c46b698U,
  0x3e90e2d2bf010331U, 0x3cf53c1e3e3a249bU, 0x3e69da09bfca0012U, 0xbd81f365be123c1fU,
  0xbe945ae2be9ca662U, 0x3e2b09f73ea12110U, 0xbe4aa309be1b565bU, 0x3ec87ed3bf0b959fU,
  0x3d0df17e3e34b3feU, 0x3e48c99bbde997e7U, 0xbec8d5343ef21651U, 0xbe1130e13db2cdf0U,
  0xbf8b22dabdce46abU, 0xbde828d4bdce83e4U, 0x3e0a7e31be0dc903U, 0x3e9505a73db32ca6U,
  0xbde8c5043e906ff3U, 0x3f37b4263e037a83U, 0x3d98f187bea8a297U, 0xbc9fde1d3e0e896fU,
  0xbe0b378cbd64e150U, 0x3dfa0ed83f0fe228U, 0xbec08f19be5f6babU, 0xbdb3e0eebe3534f3U,
  0xbd5ae3053e54aa07U, 0xbe1982253df57cb8U, 0xbd219c1e3eeb92fdU, 0x3d9c0fb7bd38feabU,
  0xbf0fa4083f1473efU, 0xbe9dbdb43ded6475U, 0xbdd3fe29beb5da2bU, 0x3e873af4bdb5c159U,
  0xbee4c1ad3cad242aU, 0x3e3d8656bf2f05eaU, 0x3ce0bd743e940b02U, 0x3d8a02bd3e8a8650U,
  0xbe52fb00bf4b0cd0U, 0x3b689e6cbdd1ac15U, 0xbf6929be3c5cc066U, 0xbf9d45acbf17b4afU,
  0xbf181b6ebe8794a9U, 0x3e8f2cd0bfba7013U, 0x3de368ff3ee723b9U, 0xbcfc1e793d3a92a3U,
  0x3f6c534abed5e997U, 0x3dd49300bc6f7700U, 0xbefe1b4abea4054eU, 0xbe8d52e2babb3d04U,
  0xbe1f1a2ebe92ded2U, 0xbd57715fbf73101aU, 0x3c1b1fe33f3accdeU, 0xbe4324a4bdedb3f4U,
  0x3b0b9c96bd6a9bdeU, 0x3e53dc3abdca0ed4U, 0x3dc9e40dbfa35ceeU, 0xbef19204be820832U,
  0x3e16e419be0f7b9fU, 0xbc993133be0fcf54U, 0xbf803fb5bf5e2cceU, 0x3d58e2993c97968aU,
  0xbd56cd803e6f7019U, 0xbee9ccc83dc5b581U, 0xbb9b0d083e173bc4U, 0xbe179b803d85721bU,
  0x3d8d72f1bfc2bb47U, 0x3dadc0723da26305U, 0x3cc8b1c63e9a65f3U, 0x3d088b35becd7405U,
  0x3cd24c9d3cc80e1eU, 0x3e672dcb3e7283e6U, 0xbe362ccabdd3a2deU, 0x3d76ee8c3e09a561U,
  0xbe23aab03de5336aU, 0x3d9e0322bdc3f3aeU, 0x3e84ff693ea4ce5eU, 0x3e5790fdbcf8b590U,
  0x3f288ccabcc9b9e7U, 0x3da44d9c3dedac85U, 0xbdd6a7783e4d0720U, 0xbe85ec4abdcfe143U,
  0xbc930c103cad9a7dU, 0x3e8074153e6edee7U, 0x3e213bce3e1a9343U, 0xbe0d22963e3adc7eU,
  0xbbf22bd6bc847fb8U, 0xbe127d30bf96be14U, 0xbd46886e3f1b3665U, 0xbf86213cbd71de25U,
  0xbe5fd557bed11386U, 0xbcbacfb93d47fc7aU, 0x3ebb50e1b9df2757U, 0xbcd1030c3d3a3b40U,
  0xbf92cc1b3e95d9ceU, 0xbf12965c3e8597beU, 0x3e10e2aebf233b46U, 0xbea906f5bd799a0fU,
  0x3e3a3af53e00ab6eU, 0xbfb5cf0fbf8129dcU, 0x3bd3a4ef3e960697U, 0xbdb626483dd00f0fU,
  0x3cdfd3423e33a0bbU, 0x3dd8cdcdbd245442U, 0x3e533f58bcf716e5U, 0x3f60c4b43ebef7e2U,
  0x3e409bf6bf2507c2U, 0x3cb12f623ed5a1c0U, 0x3c9099e03f1e51d4U, 0xbf8fab503d6190feU,
  0x3c92e4e43e3920cbU, 0xbfffa66a369c7514U, 0x3e078e72bf44cd09U, 0x3e7a481cbc3af759U,
  0x3e71e6e73efe99c2U, 0x3f4d70f2beafc631U, 0xbe047da83cc43984U, 0xbea98a0ebf888b1aU,
  0xbe3358083d8a290bU, 0xbfa3da8d3d0c2717U, 0x3e356d533e59a51eU, 0x3e8d3ad73c3d5178U,
  0xbf6d89c43d29b5e3U, 0x3e712d6b3e5b72baU, 0x3d25584a3f5502fcU, 0xbcd032cb3d14ec64U,
  0x3db75a453f193305U, 0x3d66db74bf713377U, 0xbf93b6133d8d6865U, 0x3dba0f82bd27e6aeU,
  0x3d3ac0463ed05509U, 0x3dd358bb3e31cd03U, 0x3e10b9ff3e662885U, 0xbc26d8733e5dca8fU,
  0xbd5f1cc2be155b8dU, 0x3e79a9833ed75624U, 0xb8d539223f47d3e1U, 0x3d27a286bd27a931U,
  0xbce56f54bf336b69U, 0x3ecc8e643eab0165U, 0xbf7bc058be5da54eU, 0x3dd4c9123dbaedfbU,
  0xbf9bceaabb03d2f0U, 0x3e9eb269bd796613U, 0xbc18a84fbf19416fU, 0x3e1074fa3d9fcacdU,
  0x3f0c1414bea41dbaU, 0xbdbc1fedbecd7b56U, 0xbed680cabee95cccU, 0xbf46f13abef4ec14U,
  0x3da32b9cbc848697U, 0x3ea51f17bfc321c2U, 0xbdadf3e8be91150cU, 0x3f361328bd8db01bU,
  0xbe18cb6f3ddab7fdU, 0x3e0a37abbe83169dU, 0x3e330e73bae6531eU, 0x3e04e53d3f0f1f8eU,
  0x3c5fca26be00efedU, 0xbf9da21dbf5196c0U, 0x3ce329bc3c8f0a82U, 0x3e016ae5bf588e5cU,
  0x3eea5671bcae51eaU, 0x3d8255523f2c24f8U, 0xbf89d9a53e413c45U, 0x3dc2b6893d34f8b7U,
  0xbf387d4bbe73bee7U, 0x3e1d40f33e5862b4U, 0x3e3150963e8a97dfU, 0x3df3b8b9bf03d477U,
  0xbd30d4c43d6839a3U, 0x3daccfed3f3159dcU, 0xbc9470223dbccad5U, 0xbd85dce9bfd5ab43U,
  0xbf236046be290d60U, 0xbe79a6073d9065ccU, 0xbdf75413bf25f30bU, 0x3d8036193c07750bU,
  0x3dc1482a3de92dcaU, 0x3e2221763d9b56baU, 0xbed8af2cbe8b04e4U, 0xbffb3cecbf38cbcdU,
  0xbd8d6f2abfa56d1cU, 0x3c2024afbf9cf1aaU, 0xbed311a8bf3101abU, 0x3f0e13aabf3e9ac8U,
  0x3e10e7183df003abU, 0xbd10938d3d79662aU, 0xbd6346d43e44f392U, 0x3e852f313ea3fa6cU,
  0x3b3f074d3e619941U, 0xbe510e87bf9002ccU, 0xbd1c5412bf197bedU, 0x3d8dcde0bedfaf91U,
  0xbf505e613cc6ad2eU, 0x3e5e406b3e2593f0U, 0xbcd04aaebcd86b4cU, 0xbe2ecc20bfb46b6aU,
  0x3e731f613e6d3c36U, 0x3d2b24493e1bd94aU, 0x3e63b93dbd8571e6U, 0x3f73b11b3e860575U,
  0x3de71d11bf1621c2U, 0x3e4787063ee5fc15U, 0xbd6dfaf63f88d5b5U, 0xbf035db53d061274U,
  0xbc915ba43db8840bU, 0xbfbcaf3e3d32ebb9U, 0x3e1b24c9be081333U, 0x3c0ce9313e091114U,
  0x3e27d5063f25bd4cU, 0x3f4c20c4bec50943U, 0x3e32b6173d7e8a4bU, 0xbe96196dbf059545U,
  0xbeb3a1e9b90cca27U, 0xbfa7d7d2bd2fa084U, 0x3e0037de3dd55720U, 0x3de988f2bcdda20fU,
  0xbf8ba5953ea0ebccU, 0x3d46d4e53dcade94U, 0xbc73613c3f1fdb4dU, 0x3bf69823bdc79f03U,
  0x3d34db7e3f5df833U, 0xbd4638cfbee3ab78U, 0xbe8fe0f2bdea0983U, 0xbda440913d741c31U,
  0xbb2434623e6b58fdU, 0x3d6ec3d7bd319ecaU, 0xbd30d94e3e8010dbU, 0xbc0122f93e452131U,
  0xc00b8645c000302bU, 0xbd4057333db6feb4U, 0x3e1e152dbd7ec45bU, 0xbfdd4969c0069c2aU,
  0xbe3270d43c31b07eU, 0x3dfe36b13e110aebU, 0x3c98d95cbf4bbef8U, 0xbd9d123c3d1f2166U,
  0x3d21aa2ebef9f569U, 0x3e2c2757be066c69U, 0xbe8283ebbdc2cd30U, 0x3c02f6f43a1ec6dbU,
  0xbd297527bf4372e2U, 0xbf6f3b2fbdbf0e02U, 0xbdf43ffe3d68fb2fU, 0x3c523f893dce3b6aU,
  0x3e0140a9bf215d7eU, 0x3eff51bebe143177U, 0x3e218468bee7e512U, 0xbe568d54bf9f9f7eU,
  0x3e32763dbda76f06U, 0x3aa78558bccc15a2U, 0x3ebfbfabbfd7e61dU, 0xbe09b47a3d8e8887U,
  0x3de73661bf3db0c6U, 0xbf1d4b7c3cd29e03U, 0x3d4c158bbcea5c58U, 0x3d29060d3e40d393U,
  0x3df6892a3ee72447U, 0x3d7570a8bdc89ec6U, 0xbdab8cabbe67d7d2U, 0x3d06ce333defe781U,
  0x3d011c483d8c6d1dU, 0xbd944e0dbf854ceeU, 0x3e1a21e7bf0ba7f2U, 0x3ee48d923dfea6ebU,
  0xbf0e227c3ddb9cb9U, 0x3eaab860bed522c8U, 0x3ef8048f3e06f493U, 0xbc8e9c9abf1122a2U,
  0xbde5f0f5bf25aa6eU, 0x3d5019babe80705dU, 0xbf25f151bcfaee1cU, 0xbf7c99aebfc808e1U,
  0x3f4934263e5e2b0cU, 0x3e838b863ebc8f24U, 0x3e37d6103dc928e7U, 0x3bf126293d537b3eU,
  0x3d8f47833d074d9aU, 0x3de9aa7cbbe86272U, 0xbf444dbebdc71932U, 0xbfa001cb3d58977eU,
  0x3b5d6028bf7f0aa7U, 0xbfb10d733ed23c0aU, 0x3efb5d8e3e16d6f5U, 0xbe8e4927be7aba94U,
  0x3ba0b9023e158884U, 0x3f211dc73d20f1c1U, 0xbd2b8962be163fbbU, 0xbf9a9f91bdc2c7c8U,
  0xbf88fcb4bdf3d210U, 0xbfd9ca68bf11e5e9U, 0xbf072e703eacb84fU, 0xbfd748a03e6775c4U,
  0xbf136be2be808d9bU, 0xbe591f603e09a151U, 0x3d6ab6dbbdecfeb3U, 0xbf162e9ebed80bc8U,
  0xbe47074f3f08a2e6U, 0x3cae80c53dcf5f38U, 0xbe1c3c1cbf86dd28U, 0x3d82e26bbd6ca9acU,
  0x3f1be8a1be92ef21U, 0x3e71e057be782bfbU, 0xbe36344abe1d1751U, 0xbc89a3903db13fd3U,
  0xbf33b375bf7ec713U, 0xbf88d9143ecf08b4U, 0xbdd188b4bcd96719U, 0xbe6ba9e23d5fb7caU,
  0xbf0a57bdbed8ef98U, 0x3eee0139bcf0366bU, 0x3d02fa54bda64813U, 0xbe8adf78bee00e4aU,
  0xbe192123bc40970fU, 0xbd0cb2f73e7fe18dU, 0x3ecb460cbf0d3238U, 0xbe8c73ebbe66733dU,
  0x3d753678bf5e048fU, 0xbf79805a3e5fd2a7U, 0x3e0684c93d40b646U, 0xbd304adabe149b6eU,
  0xbcb9a9603ea497beU, 0x3e43c89f3e5ca2a5U, 0x3cc971cebedee735U, 0x3e1d7dc1beaafb75U,
  0xbf71b4a2bea8e860U, 0xbc34afdb3e940968U, 0x3d6b37bf3e49e750U, 0x3dfeb528bf3bfbd9U,
  0xbb3e8912bdc8b8ceU, 0x3db28d4c3ea3f2c7U, 0xbe27df8d3e9a04d7U, 0x3d4e4d01bfc1fcdcU,
  0xbf1ce963bc91ef50U, 0xbdbaf1583dffaf93U, 0x3d822aa3bee462beU, 0x3dc4e227bdf46ef8U,
  0xbe85a0873e8ad228U, 0x3e91ff0d3db8cfa0U, 0xbf8be510bf09bb60U, 0xc0066e13bf5d31cfU,
  0x3b3af42dbf8b4d0cU, 0xbd1461dcbfb44ccaU, 0xbf61bee8bf4c3df3U, 0x3f4853c8bf5b7312U,
  0x3d6da0e13e48581fU, 0xbe1d62573c705c72U, 0x3d473ee83dcff16cU, 0x3c3bdad03bd91379U,
  0xbd9fe0403e92e774U, 0xbf02518cbf6116aeU, 0x3e6646a5bf1efe3eU, 0x3e1793b0be860f12U,
  0xbf6b48e73dede8a0U, 0x3d29d19b3d9cb8c2U, 0x3d1e92313e6eb90fU, 0x3d2d1927bf4cb7aeU,
  0xbd0df63ebdebf40fU, 0xbf4e6792beba1271U, 0xbedb694abfc0d0a1U, 0xbfa73af6bdf732e3U,
  0x3cdaf9b3be032daeU, 0x3e75ccea3d875b69U, 0x3d548904bf2fadd3U, 0x3d8fbcd13d006d7aU,
  0xbd9d8ff0be34a8d6U, 0x3d85382cbf59b65aU, 0xbe2e12003e632851U, 0xbe7b3fffbd17f8a4U,
  0xbee19df8bf309958U, 0xbf5a75273dad1607U, 0xbc5e8f3f3db38ed3U, 0x3d96cf71bb7f61feU,
  0xbd9b45c1bcd7da09U, 0xbd61543b3dbd3541U, 0xbdea4c4bbd213a4aU, 0xbf0bcd00bcd4be3bU,
  0xbe014bacbe2db73cU, 0xbe331c3f3cfe045cU, 0x3ec006c2bf779167U, 0xbf73a616bf3ce2b2U,
  0xbe2d389cbf7feeb5U, 0xbdbe3391bb3643e7U, 0x3e6a54ff3b84137bU, 0xbe5392473a08de1eU,
  0xbe1001fc3e75fc52U, 0xbee9374bbf44672fU, 0x3d874203beb9f559U, 0x3c89a4a83ea955b9U,
  0xbe5ff32ebf1d573bU, 0x3da4aa3bbfef2c30U, 0xbd8371833ce920d5U, 0xbf5265f8be8247ecU,
  0xbfa7a9b23d5b7256U, 0x3ef7b26d3da84f43U, 0x3c860ff63f74ffcbU, 0xbd0620e13dd05b3dU,
  0x3decc9abbf989c68U, 0xbd91fb613d2c4d70U, 0xbfe75bf13aef8d0aU, 0xc00a14debed3e732U,
  0xbe25cdd43f2f9c9dU, 0x3d8e90e53e26406eU, 0x3cbad1773e07f38fU, 0xbcfe0f88be053372U,
  0x3eb097f23ded6048U, 0x3dce4f3cbd31c4c6U, 0xbd264b9cbe1e34a6U, 0xbd94fc7abdcc46f3U,
  0x3e2a2b49c01b63dbU, 0xbfe8ee0dbedae9afU, 0x3e361454bf096c12U, 0x3d8034e83da2a940U,
  0xbe27c6f63e47c666U, 0xbe60b3cd3d0fa08cU, 0xbda373fd3d84890fU, 0xc01488603dc8363fU,
  0x3d268b45bc1b333aU, 0xbd7370ffbc028dfdU, 0x3da296863f213612U, 0xbe97f61bbc07c013U,
  0x3dc820843e1746daU, 0xbd031d05becf83d1U, 0xbd8a44c13e352733U, 0x3e6d91c83e546f73U,
  0xbdc0441d3d9d3294U, 0x3ee807633eb2dffcU, 0xbeb6cabe3f568b30U, 0xbe6044a9be6c8baaU,
  0x3d913fcfbd90b396U, 0xbed19cb33dd6fb39U, 0xbde9fdd2bc7db3c6U, 0xbd55ff15bf3c3e08U,
  0xbbfe3af83f4cdb78U, 0x3f979dff3eaeccc1U, 0xbd0e30183e9194daU, 0x3dc4435bbe06dcd8U,
  0x3d04c2f0bd4ad232U, 0xbe0fd5043d9f4197U, 0xbdb47eca3c024a8eU, 0xbd90964cbd6b334cU,
  0xbd8b9eb3be91c2c6U, 0xbf091807bd0ca905U, 0x3f90e79a3de9891eU, 0x3cb2774c3e05d055U,
  0xbeaa7a283f8b1271U, 0x3eae74f8bdff2d3fU, 0xbf5233cebf70c323U, 0xbeafe80abf0127b4U,
  0xbeaab5b63f63b2efU, 0x3d2553bb3d277c51U, 0x3eafca7a3f2a8473U, 0xbf1d29ce3ec1efe1U,
  0x3dc376d0be87bb71U, 0x3d2b83cdbed495ffU, 0xbe7640203d090518U, 0x3d58d78fbde1bc0fU,
  0xbf2f2ecabc8b8bc6U, 0xbc5e7167bf3adbefU, 0x3db6cc5b3f2db37cU, 0xbdb0bf6abc9a17f1U,
  0x3dd4fc76be4b5d88U, 0x3e005cdf3e71388fU, 0xbf231cecbd1aa933U, 0xbf4aee8bbf7031c1U,
  0xbd3973163f05ddeaU, 0x3e8338793e613f98U, 0x3e8bbdd63d714a50U, 0xbd969285bc535507U,
  0xbda0e4c93dfea5aeU, 0xbf2a35c1bf0d800dU, 0x3c49ff15bd98cebbU, 0xbf1802e33e2f8405U,
  0xbf2835d9bf847c76U, 0xbf220f053f0266c3U, 0xbe52952a3cd23b88U, 0xbdf82be63da6b0a0U,
  0x3db1526b3f4048b0U, 0x3ea6021dbca01573U, 0xbf02d47fbf338532U, 0xbfa82ef93e3a06ffU,
  0x3e02b8b8beaf98bbU, 0xbe9eef753c96daa6U, 0x3e218e42bd04e7abU, 0xbf712cd53e59bf4eU,
  0xbd07e20d3b989408U, 0x3e9b2d783e74139bU, 0xbc5134733eddb5c6U, 0x3eb08d85be16b8bcU,
  0x3e1ab7cfbe19b64aU, 0xbd61002cbf591bf5U, 0x3bcc8d7e3f227dceU, 0x3d2565fa3dca2308U,
  0xbdc56fc5bd9eabeaU, 0xbe064c363e95cc9aU, 0x3e295b2ebc957752U, 0x3ec06d433e456660U,
  0x3e4218b93f376147U, 0x3f2f0174bf939dbcU, 0xbd52fb5b3ca83f09U, 0x3d334f3c3e2a592bU,
  0x3dfe8218be566f1cU, 0xbfc716cabea9030dU, 0xbe884772bf06d5c4U, 0xbedb58de3ecc511cU,
  0xbe8bf8823eb9b876U, 0x3e90c819bf14e167U, 0xbf9267f5bd81b437U, 0x3c204b4c3e4796c8U,
  0xbd19f1b43ec560c7U, 0x3e9c013b3e042164U, 0x3e47cdcd3e593ff5U, 0x3d82052cbeac3b68U,
  0x3e6cf17dbf9926a9U, 0xbe933358beb1e624U, 0xbe04cca23f30e0f5U, 0x3e48d0523ee21f29U,
  0x3e1478d3bcf60231U, 0xbde86942bd73aca6U, 0x3db433d03de04267U, 0x3dccee973d4dfb9aU,
  0xbd998ac73dabe314U, 0x3c7e5a7abfa046dbU, 0xbd3afcc53e864f83U, 0xbfbba624bdde911bU,
  0x3db7dbf13e3defdfU, 0xbfda379e3d2ff341U, 0xbd8857dabf3ba491U, 0xbc2bbfb0bbb89369U,
  0xbd59156a3dd2ebb0U, 0x3d95767bbf09901dU, 0xbc8e2826bd665898U, 0x3c0adfc0bf42cab5U,
  0xbe52575b3d2ab97cU, 0xbf20a0903e4be86bU, 0x3e8e46c53dd48fa0U, 0xbebf060d3e5d71f4U,
  0xbfbc02cabd371f98U, 0xbd81997a3dc8a14aU, 0xbf990ceb3e213f46U, 0x3d66c495bc8141e6U,
  0x3d0f6f493e472bbdU, 0x3da7ea8ebedde8e6U, 0xbfe03777be231f8eU, 0xbd95163abe65c078U,
  0xbd7fc202bfbcb4ceU, 0x3d9cb48c3e424c73U, 0xbd511da2bd443c97U, 0x3be20d3c3f05bac6U,
  0x3def09e13cc499b7U, 0xbd2ed74abee80a60U, 0x3e6028863cc9d152U, 0x3d7bf0773e45e6d4U,
  0xbfab82bfbc9abc5dU, 0x3e007fcebe8daa07U, 0x3deaf7083f044865U, 0x3d51f8b2bd9987d1U,
  0x3db4c269bee52957U, 0xbec7fadebdd48ccbU, 0xbfb8a5943d3c6e2aU, 0xbfa30826bfb3317eU,
  0xbbd832c43e8661efU, 0x3f6ffd9d3e33e278U, 0xbf1b8cd23e6e9279U, 0x3d60198c3da3cd9bU,
  0x3e1f447c3e940661U, 0xbf8b98b53e889934U, 0xbd955c673df9a09aU, 0xbee874ef3e4a2b6bU,
  0x3e9c447ebf82cf55U, 0xbf24adcbbcb9cc18U, 0xbd5e85273c01f96dU, 0x3dfb7c733e3eb68fU,
  0x3e3597643f447cbdU, 0x3ed2bcedbd068bc8U, 0xbe726c35bf1bab79U, 0xbfb50636bf0778d6U,
  0x3cc2e55abf2d6f58U, 0xbf3172253e5f2fd4U, 0xbf1dd2c73e8d8a6aU, 0xbfc9953c3eec6fb5U,
  0x3e3726213eabbeffU, 0x3da8fbf93e0b816cU, 0x3c21a706bdf18dbeU, 0x3e733b4abc6e70cfU,
  0x3e18ceb93dc5183dU, 0x3dfdbd49bf325e53U, 0x3dbacff03edc1673U, 0xbe2f7172bd100fc4U,
  0x3e021f3e3c294eebU, 0xbefbfd66bce0bebcU, 0x3e3adadcbdebf037U, 0xbdf3ccccbcff3bbeU,
  0x3dcefdc03e2f3393U, 0x3f742e8ebdc61526U, 0x3e05da653e8c0ee1U, 0xbe3b53093e0cfa4fU,
  0xbf4400253e0dd95dU, 0xbfb535fbbf355070U, 0x3e6f284f3f50d68cU, 0xbf4c643fbcad13bbU,
  0xbf7aaeff3de29100U, 0x3e713891bdf585bbU, 0x3e8b67933e3fa2d4U, 0x3df577943e864ef5U,
  0x3d6ca70c3ef80a0fU, 0xbd93062ebca448eeU, 0xbecc3423bf306f45U, 0x3d9d8b813a0f8a94U,
  0x3dde894ebe0d4006U, 0xbf8ec046bf1350acU, 0xbb6e72063f0967a1U, 0xbbe4377bbec4a653U,
  0x3e2862293e390ce9U, 0xbe06211abea3c2c7U, 0x3e0203e1bd5e7fe2U, 0xbc4d97f8bc8245b7U,
  0xbdc19d4bbe796bbdU, 0xbe5a621ebf87e1eeU, 0x3cd8a6313e27ca86U, 0xbfbf3c1ebb149cc2U,
  0xbed6c893be1ae1d8U, 0xbf55b2b13dce5277U, 0xbd5e137cbf466f1dU, 0xbdee58c9bd03ee73U,
  0x3e5a93ff3e87f44fU, 0xbcf77e3ebf750633U, 0x3ebdb9f6bc9641f8U, 0xbd2c70cabeae1223U,
  0xbec9616f3d27c60fU, 0xbe74b8bc3d304123U, 0x3e7112523ca56b7fU, 0x3bf21d3c3e802dc1U,
  0xbf168148bddcb319U, 0xbc35c8363e25a8eeU, 0xbfae227bbd485e83U, 0x3cecb878be821047U,
  0x3da44f8d3dc537ecU, 0x3df192bfbf0744d2U, 0xc0090bbcbf09dba2U, 0xbea026fc3e5a2a8aU,
  0xbe7adad5bfa6bb99U, 0x3e06dca6bbdb4397U, 0x3e7aa424bd79c58bU, 0xbdebbf203e8b97f7U,
  0xbcf2a7303d1fb51eU, 0xbce2db96bd91bffcU, 0x3e353de23d160805U, 0x3d5d5326bda2a0c2U,
  0xbe322e993e3f26f3U, 0xbe27cb04bebd98afU, 0xbdba9848bfe0e1d9U, 0x3d20a7aebc62175cU,
  0xbdd88b58be28380dU, 0xbe8a7956bcf28b27U, 0xbdcf0bd0bda01e9bU, 0xbde5be86be909bb8U,
  0xbe73c7e6bfb0d46bU, 0xbfcd12403ca23c93U, 0x3e83461d3d3f45ebU, 0x3d19ea353c1d79c2U,
  0xbc14c9e1be9b214bU, 0xbdf1e80abfa49f45U, 0x3dffa78bbc620d93U, 0xbf13e14bbdb4e58eU,
  0xbd27e0e2bdbd2762U, 0xbe059b753e2b4446U, 0xbe4a621d3d719223U, 0xbd0ee770bc88b251U,
  0xbd93c9f3c0037cd5U, 0xbe19131e3db3eea1U, 0x3d65d2c0bd915052U, 0xbe45f581bd0d694dU,
  0xbe2261b3be437e03U, 0x3b4535ab3dd38bcaU, 0x3e8db4fbbf5dc71bU, 0xbe87258fbda52a23U,
  0xbd41806f3e0ad85fU, 0xbb03ea91bf6dce87U, 0xbd817444beb3e46cU, 0x3eaa2bc9be142cc2U,
  0x3d6832ff3e136250U, 0x3e634b08bf2d746eU, 0xbdcffc663d0b89d6U, 0xbd67898fbe40eb4eU,
  0x3e8c4275bd7f74b1U, 0xbe3dc7fbbe7381e2U, 0xbce66e49ba044550U, 0xbf16c252bfae6339U,
  0x3ea49b223e9716f8U, 0x3e91b09dbe400d1aU, 0xbf801ba7be379b8eU, 0xbc4a1a3d3c4388a3U,
  0xbe92782abbd0a321U, 0xbd26d5e3bd2e93baU, 0x3edcfe35bd8c460cU, 0xbf829c8fbd896d15U,
  0xbe838c40bf6af173U, 0xbf249dae3f425526U, 0x3ef9cabf3ea9b35eU, 0xbdb97f04bd88694eU,
  0x3d64aeaa3e0e8952U, 0x3e68058dbd0e160cU, 0xbd661de83cb2249aU, 0xbf8ea6ed3dc75760U,
  0xbe94ebf1bdd7ff8fU, 0xbfc8735fbed21453U, 0xbf98fe2a3ec3082bU, 0xbfdd5094becd9749U,
  0xbf944158bf35df64U, 0xbfb5b8ab3de69335U, 0x3f1d031abf90f03fU, 0xbf03fd32bf6f1a3cU,
  0xbd0d2b37be5f7182U, 0x3d85d402becae4ceU, 0x3e661342bed0f491U, 0xbd17c8d8bd877fbfU,
  0xbf6d57ad3c972282U, 0x3ce8937cbfc831daU, 0x3e17e19c3c8f14daU, 0xbbc4f36abe55cd5cU,
  0xbf3f2637beb62ea7U, 0xbe81113e3f1b7aaeU, 0x3e8d4a06bfad101dU, 0xbcd405993e0281ccU,
  0xbfcb5485bfc5dfd8U, 0x3a4bbc89bde0b21aU, 0x3e43c610bf0db2aeU, 0xbf21976cbfa978fcU,
  0x3d9507a93dfa745bU, 0x3d88407d3e74836dU, 0xbdf07cf7bf545cf1U, 0xbffa81f7bfa48300U,
  0x3e5c8477be50b1efU, 0x3ef4d0123e978e35U, 0x3ce7aacc3d1f11bbU, 0xbd9118463e823316U,
  0xbaf5f6ee3dca1d62U, 0x3ca9fce8bf7a1967U, 0x3dea51ce3da627a7U, 0xbec16375bf246df7U,
  0x3e3b522f3c946dbaU, 0xbc3bc4ffbf380880U, 0x3ec37334bea36875U, 0x3dbd49263deacd90U,
  0xbf14902a3da9a8bdU, 0xbe09e438be6fbfd4U, 0x3dbdd6fabd9945d2U, 0xbdb23cd4bd289e2dU,
  0xbf331709be4e9f96U, 0xbf08d675beb0dcb7U, 0xbf0c9f07be67ead1U, 0xbf4a2d3cbf9dcfafU,
  0xbe6d6331be24a01eU, 0x3d7c33a13e649d1bU, 0xbecec5343e0c4819U, 0x3cdd07efbe5dd998U,
  0xbc1c55113be27858U, 0xbea4e611bd828127U, 0x3d0ac64d3e43a9cfU, 0xbf332ed43d4995f7U,
  0xbf128522bf786ee4U, 0xbf4e40973eb938c5U, 0x3e1da4a63e0ff0d3U, 0xbe462304bd72ff51U,
  0x3ebab5213e5277baU, 0x3f08e8edbc331906U, 0xbddad2d5bdf5b713U, 0xbfa2e1d03dbac9aaU,
  0xbc9c04f7baedbfe1U, 0xbf7cd0753e34a814U, 0xbf17813e3d9b8df9U, 0xbfcfbc403eb22311U,
  0x3d3ddec33e25ad80U, 0x3db471f3bf1e32e4U, 0x3e81ed8bbeceaf9cU, 0x3dfca7a93e3f887cU,
  0xbf224726bbbeb5b2U, 0x3ca79bcdbf119e44U, 0x3e930bf43ebf0081U, 0xbd5f0d20be760e65U,
  0xbec0bd6dbe49ab53U, 0xbe8f257cbe82e97eU, 0xbf1945cbbd87156fU, 0xbf24a7e5bf87b79fU,
  0xbe13b8da3ee0619eU, 0x3e2306123f802c56U, 0xbe506f613da37d46U, 0xbc82d6f33dc5ff32U,
  0xbebf9df13d6de021U, 0xbe527f1bbe1e35a6U, 0xbe522d7b3dd15b67U, 0xbf05ef663d1824c5U,
  0xbf2a27babf3e7680U, 0xbf43389c3edb5df3U, 0x3d028de83e30d356U, 0xbdd7198dbdfe7747U,
  0x3d9a2f283e763b2dU, 0x3e403c31bd9551d5U, 0xbceefabbbec6754aU, 0xbf5be7933e82f081U,
  0xbddb8f9fbe0637d2U, 0xbeebee153e912665U, 0x3f0109da3d85ead7U, 0xbf4c4fe4bdecf57cU,
  0xbf67cc88bf7d2da0U, 0xbe23cf57be1d1ff3U, 0xbe056e7f3c981a9dU, 0xbfd47428bf535adcU,
  0xbe10e1b43e055eb4U, 0x3c8d92843eb3dbe3U, 0xbdbc0bf2bf449b95U, 0xbc98ea2f3d496d30U,
  0xbdf67f80bed78269U, 0x3d126860bdd725e4U, 0xbe2df8afbd601f7dU, 0xbe7186533c132b21U,
  0x3d8cf0adbf250e81U, 0xbf62aebf3caf72efU, 0xbcc45d093d774c83U, 0x3c9cdfa03b96220fU,
  0x3e0aa111bf74e41eU, 0x3eb66f103d8e44c2U, 0xbd9d2642bea8273eU, 0xbdcd948abf6a153eU,
  0xbd120cd0bd3128bfU, 0xbe317efb3e1663a7U, 0x3f64c5c2bfc70336U, 0xbe3013cebe5c4d5eU,
  0x3e0f621cbf4d1d75U, 0x3ea1f4833d5faf10U, 0x3e0bd1313e0a39f2U, 0xbdbea57a3e669db8U,
  0xbb7c93cf3e4c900eU, 0x3d596c2f3dd0b42aU, 0xbd1ca398be9e51e4U, 0xbd1e6613be776e2eU,
  0xbe161188be842761U, 0xbd455913bfc83cc0U, 0xbd6b82be3e08f3fdU, 0xbe8b27eebdef0693U,
  0xbec13ce63e2a3064U, 0x3f0092633d7a8811U, 0x3dccdcf23f0ab778U, 0xbc8f08f6bdf9a81bU,
  0xbcc2371bbf01ba7cU, 0x3cbca4c43e257848U, 0xbf0db440bb88dae8U, 0xbfbd4f23bfce3b6eU,
  0x3f8521983ef7d891U, 0x3efc12e43e6c526cU, 0x3d132da93e516439U, 0x3c96c832bb86f0ffU,
  0xbcc01051bd94fb0bU, 0x3ded6fa8bcea8e04U, 0x3da2626dbb0821f5U, 0x3df066f6bd577944U,
  0x3e2ff9c9bfa952b4U, 0xc000e6d63ea286caU, 0x3f2403c3be97ee5aU, 0x3db9aeb53dbdce18U,
  0x3d597e223f1e5816U, 0x3e5dfa373cc2aa26U, 0x3c211c413c318f95U, 0xbff607683d4f4a43U,
  0xbdb2a3b2bbcdda81U, 0xbd4f0c613dadafaaU, 0xbdaa3ee63e724ab5U, 0xbfdd42eb3f197b88U,
  0x3db372513e39844bU, 0xbd651d4d3dc89f58U, 0x3dd92465be46992aU, 0xbcfc71c4bc19936cU,
  0x3d8485c3bd028973U, 0x3f19cace3e5edc67U, 0xbf379e713ed59ea7U, 0x3cee2beabee76d4bU,
  0xbeaaf2fcbca21299U, 0x3f330c593dd2dfe9U, 0xbb522cf0bd203adaU, 0x3dd9df5bbd68012eU,
  0xbdaeb334bd43c690U, 0x3e25c8283f6baa7fU, 0xbd937c6bbec79379U, 0xbdc1ef25be95fdaaU,
  0x3d43fe7f3d262105U, 0x3f0586e1bd93bc04U, 0xbeb325f13ec00c99U, 0x3e5c0c393e52def8U,
  0xbe9edaca3da005ebU, 0x3e05ba073e5231cbU, 0x3fd15b683d5bf3eeU, 0xbd388c03bdb2b91eU,
  0xbcd180b43f323db5U, 0xbf2f227fbd1fff23U, 0x3bbdfe01bfa4caccU, 0x3d9d2aedbfaeb94aU,
  0xbf6eb2743f814a93U, 0x3eb3e297be7eac6eU, 0x3e7c9ffe3eedccb9U, 0x3cf1030bbf11746cU,
  0xbeb57e293ddcc7b1U, 0xbd3852e8bd15e18aU, 0x3e8d31013e275641U, 0x3d01cae0be5ea2c9U,
  0xbe96d3d93e2b23b0U, 0x3da78f39be9790abU, 0xbde1e7dfbfd62459U, 0xbe0d670ebd6d3cd8U,
  0xbe08d61ebe803fc5U, 0xbe5e50e8be420d2aU, 0xbccbd799be17ae21U, 0xbd86361a3b77505dU,
  0xbcf804d9bfc754a5U, 0xbfb127b73ef27225U, 0x3f0f17cabde8038bU, 0xbc1214103dc57b33U,
  0xbe032475bee5b036U, 0xbda35414be34a88eU, 0xbe075a153e16eebcU, 0xbdb6ec97bed82418U,
  0xbe428c2cbb994b73U, 0x3d86114b3e8f38baU, 0xbc82c5e2bd98c3d2U, 0xbe3d1da1bdf21bbfU,
  0xbd72167cbfac438bU, 0xbc84d4543dbabff3U, 0xbd94c925be3ae597U, 0xbdb1638b3ec2059cU,
  0x3e4e717cbe81d452U, 0x3d16dd803e7ce07fU, 0x3e72e006bf254a23U, 0x3c985eacbeca9c1aU,
  0x3e189198bcc47b91U, 0xbfd4ab00bf491210U, 0xbf2ca778bfe3c643U, 0xbfdca7633da3e49aU,
  0x3d3fb5753d2a9ac0U, 0x3da07adbbd544f95U, 0x3d43be1a3cac5115U, 0x3dfa4bc7bdf3b277U,
  0xbeb1d960bd214977U, 0xbd844bb8bf78878fU, 0xbe217c6b3e2d3a7dU, 0xbebe0c22bf187338U,
  0x3e85237a3e4e9503U, 0x3de92a2d3eb5b10dU, 0x3cb4c2bcbeb7ba2dU, 0x3d0061463e90c1aeU,
  0x3d85bc213d9a9726U, 0xbbd25fa13e66b098U, 0x3d5344503c835710U, 0xbeb883ad3ddfff87U,
  0x3d43fea0bed2ab19U, 0xbec2679fbc9167f4U, 0x3e8371dfbf86a2d2U, 0xbfad6307bfd824c7U,
  0xbe00982a3dc5c95dU, 0x3e89e9433da0f1ebU, 0x3e345b0e3e87dafbU, 0xbe6d48f73d021487U,
  0xbccb29ca3e571e47U, 0xbf0f1a00bf5d0876U, 0x3bf045c53de343b2U, 0xbed585873eb1d6d4U,
  0x3d9c220f3e811e0fU, 0xbc20214e3e3a80bbU, 0x3dfa752dbe2dae85U, 0xbeb09c793e9d21a2U,
  0x3e31c0cc3d3a4361U, 0xbe2bf4dcbf8c14feU, 0x3d5c89d33f03bf54U, 0x3db2df91bd81a348U,
  0x3e1dfda43bfd2041U, 0xbe2bc25abd8bc97dU, 0xbe7198763dff24fcU, 0x3e05869ebd4e5779U,
  0x3e463a583f24e656U, 0x3f83e295be809b9bU, 0x3dc567643e183d27U, 0xbdf71b093e2ef680U,
  0xbe7bec163e85763eU, 0xbfc5fb46bef8f5afU, 0x3de38e6e3f4de030U, 0xbf4d67cd3e8b57ebU,
  0x3e2e12bfbc01e3e1U, 0xbd8b72103e4f8fb3U, 0xbebbe6853e28a8e3U, 0xbc2ebe3a3dc824b9U,
  0xbd1193af3ea4b1f5U, 0xbf30ca423e418d9fU, 0xbeb9ecb6bf620c1cU, 0x3cdf4309bf0bd6a8U,
  0x3d71a7e2bf4b6c59U, 0xbf9ab53ebd96e66eU, 0xbe3a50d93f1d2a0fU, 0x3d149f42be0e0d25U,
  0x3e0a0df73e8454a5U, 0x3d981ff2be38a81cU, 0x3e0dc26bbebdd298U, 0x3f4538243d866089U,
  0x3d5dd2c6bf13e9c1U, 0x3dbb52813f4ce226U, 0xbe45865c3f231ae1U, 0xbf9a445bbc8a3458U,
  0x3dfe2dd93e8c956bU, 0xbff33e2fbd15bcc8U, 0x3ca5f39cbf145398U, 0x3e444b28bcfe2044U,
  0x3e898c7d3f484db4U, 0x3eaa0c71bed69a0eU, 0xbb1666a6be09c7f9U, 0xbe690a16bfade974U,
  0xbd54d8bb3d9b350eU, 0xbf61b3cb3daabdecU, 0x3e33e0433e024919U, 0x3ea54ed13ddcc3c1U,
  0xbf895b4b3d5657c9U, 0x3df299e13e6d38adU, 0xbca13a2a3f02d02aU, 0x3dc4851f3d9334d7U,
  0x3c7713693eebcfb6U, 0x3daab131bf89b087U, 0xbfc28c8fbe098456U, 0x3c6c5320bb79ced7U,
  0xbbecc7863f056d8cU, 0x3e19fde53e1c4697U, 0x3db961013e82eb03U, 0x3c34da563d7cac46U,
  0xbdbb37b4bdd86489U, 0x3e173df0bf9fe26bU, 0xbe21d0763cc6de91U, 0xbc4a24f7bdccde15U,
  0xbfdcf6cd3ca48645U, 0x3dd6ef3ebfa8b7b1U, 0xbdc6c3b23e3e31d3U, 0xbce2f4f63b9a9b1eU,
  0x3f7e0e01bf145ef1U, 0xbe53c0c43d94af3dU, 0xbfb783c1bd946f42U, 0xbfdbe75cbeb5c8bfU,
  0x3eb9b1ba3eaeb088U, 0x3e5c1ac0beb6f3daU, 0x3dcce3f63f1b9612U, 0x3cb546e43de2fbb0U,
  0x3e34eab53d9574abU, 0x3db52888bdc5bc10U, 0x3e4e5508bd3c78e8U, 0xbf8323a9be0bb60aU,
  0x3ddf012fbfe51476U, 0xbf7336ca3bec5df7U, 0xbf4e4e8cbb3052d5U, 0x3d47c06d3daeed45U,
  0x3d646aaa3e793268U, 0xbd48351c3cb18489U, 0x3cda720c3d5082d5U, 0xbfdc8a713d804a3fU,
  0x3e337fd7bfb127f2U, 0xbecb153f3bd3a915U, 0x3cc27c913e24ce87U, 0xbe9e743d3e6a02efU,
  0xbcb0a044bd59ce5bU, 0xbfd1ab47bcf5894cU, 0x3edbf2a7bfb5cf90U, 0xbd2902fabe5edd05U,
  0xbbebcb22bf697ffbU, 0xbf3cf78d3cebf519U, 0xbe82ee563f5a0f49U, 0x3cb13dbdbe7182e3U,
  0xbf8194993e1dcebeU, 0x3d387ae2bfc23b63U, 0xbcbf15793d4a81a2U, 0xbb6d8c44bc089be1U,
  0xbf5eb1083e8bfe90U, 0x3f30c607bd38740fU, 0x3e513938bfac0c74U, 0x3d5c45f63e3148d2U,
  0xbf81e984be551c7fU, 0x3ce993a3bd61b616U, 0xbe15e0893ea86bdcU, 0xbec42388bea9d194U,
  0xbdd556b93d2acf95U, 0x3ce4255cbfa0413eU, 0x3e3085a1bf2db83dU, 0xbfcf5c0abf834964U,
  0x3f0b7843bcc289bcU, 0x3e3b78fa3e5517d9U, 0x3df6ecc0bdd507fbU, 0xbc89f6a63f100110U,
  0xbf11c9d53e8d8874U, 0xbe1122efbfc5ec2fU, 0x3e51137fbe101405U, 0x3d7f6480be549fc4U,
  0xbdeec133be53c8d9U, 0xbcaeda23bfb18816U, 0x3cf6d2e93e9c9d90U, 0xbeead520bd1c78c6U,
  0xbf73af123db8ea4cU, 0x3df1e25abf03deb3U, 0x3da8fb613f1dcb41U, 0x3d0bf5a43db87c4aU,
  0xbe18581fbf393ca1U, 0xbca992fe3d533efdU, 0xbfaac791bc01ccf7U, 0xbfc2667cc00c66c3U,
  0x3f0f157a3f4c98a8U, 0x3f83e3f33e3e86dcU, 0x3cd98b01bde30469U, 0x3cbcd6333d96d06dU,
  0xbd2203743d804bbaU, 0x3e8eec6cbda10158U, 0x3da37bdebd182f2eU, 0xbdc2b1c33d5c262bU,
  0x3e4f32bec00da697U, 0xc004c7d53e06e905U, 0x3ed5edcabdc95a80U, 0xbb3cae4cbd248c02U,
  0x3d824b563eae1f78U, 0x3e03ac833ce80888U, 0x3d52cb52bd765d8fU, 0xbff9ec263e289e35U,
  0xbd192143befddd34U, 0xbf20eccf3e0b750eU, 0xbdf319aa3ef5cd04U, 0xc009bd1b3ed2232eU,
  0xbf7dc9fcbfe3bb1dU, 0xbee81096bfc5505eU, 0xbda23055bf96243bU, 0xbf081967bf8ef0fdU,
  0xbe2a69963e03b2b4U, 0x3e9a1e75be35e6b4U, 0xbcbea29cbf685d91U, 0x3bf9b9e03d109bdfU,
  0x3e7d34e6beead75bU, 0x3d99d6b8bec065f2U, 0xbe685ba93d5620bbU, 0xbf8afbe5bf7c5954U,
  0x3f0c70abbeeebd1bU, 0xbf828ec43d52f5bbU, 0xbf4c46493e3aec99U, 0x3d253462bd46195eU,
  0x3ea4c278bf109220U, 0xbcea91073d3018d1U, 0xbe4b5b07bf0c894eU, 0xbf1147babf7f0ce2U,
  0x3ded7282bfbd1f02U, 0xbfd13afb3e96e186U, 0x3eb62be7bf3cf16eU, 0xbf004024bf359a6fU,
  0xbe09328bbf9de701U, 0xbdf413e73d86fd71U, 0xbd0c7e26bda6ec50U, 0xbfb4add03d669ebeU,
  0xbe4e2b653e45f734U, 0xbf5cfb42bf2aeedbU, 0xbf7362ae3d87c890U, 0xbf9dc39f3eb0bd15U,
  0x3e32abfdbd1859b8U, 0x3e18fd253d6f6b8cU, 0x3e8bcfec3d19b870U, 0x3e8b12033ddd8084U,
  0x3d02cedf3e2edf6dU, 0x3e9eb5533f2a0c14U, 0xbdaf56d73f013a67U, 0xbec2e618bdd85810U,
  0x3d282122bd80486cU, 0xbec835ae3c427236U, 0x3e3675adbf01d140U, 0x3e464e04bd99142bU,
  0xbd1dfd933f100c94U, 0x3f60c1bf3eea3a17U, 0x3e161ca2be7f3269U, 0xbe2ab179be6ab93cU,
  0x3ed6825d3de6f2a0U, 0xbdb6ed53bf1a5ac4U, 0x3d099d4f3f2e5c1aU, 0xbe9080a0bb73e6dcU,
  0xbebd4ad63d8befacU, 0x3deea5c3bf40ba47U, 0x3f0b20c63dc5b5c2U, 0x3d89e9223e60aa4fU,
  0xbcce73a13ee4efb9U, 0x3cc51f23beec32a9U, 0xbeca0f8cbfb4caa3U, 0x3d0c549cbe478b56U,
  0xbdf3d8763e0708c9U, 0x3c615603bd50b3f1U, 0x3cc3ab653f081bedU, 0xbeb75e903df8b082U,
  0xbcc3576d3d64a484U, 0x3d654d7bbd7c49f6U, 0x3de1030cbd0a1d37U, 0x3e02153c3c5f3743U,
  0x3da4f3d43e458260U, 0xbfa92c1dbec3a05fU, 0xbca164e9bfa542dcU, 0x3dbc28013e92da10U,
  0x3e8bc2163e505722U, 0xbdaeb5f7be60ec86U, 0xbaf6f21ebe184cfcU, 0xbe0cafe03ca0f268U,
  0xbe343d1fbf7b7d2dU, 0xbf98e456bec5cecdU, 0xbe8f309e3df567fcU, 0xbd1f60acbc406246U,
  0x3ddddf413dd05510U, 0x3c17e246be993c0dU, 0xbd4a4ecfbf0f4ed2U, 0xbe9d973abda00a76U,
  0x3e60075b3d1ed092U, 0x3cc87c4cbe88b677U, 0xbf8156f83cd45906U, 0xbdfca001bc4200edU,
  0x3d881bb8bfbd8217U, 0xbde0d0c9bdbc2df5U, 0x3e8545f73f5506e8U, 0xbd1731dc3ea2d865U,
  0x3d4f361fbf3d020bU, 0xbca672453e09ffcdU, 0xbe62fc4cbfaffd18U, 0x3a7237ac3ce06ea3U,
  0x3c22593abde288d8U, 0xbda2591b3e012528U, 0x3ceb7d8ebdb8f525U, 0x3c1874e63e486603U,
  0x3c6385c0bf2bfd08U, 0xbda97b0f3f7a04abU, 0xbea5aca7be349e38U, 0xbcc117d6becee2c3U,
  0xbed50ea1bda4d0ccU, 0xbeb243763d4f48d7U, 0xbb8a9ee2bf057cb2U, 0x3e2302993df30bedU,
  0x3e6ce03abcd1281cU, 0x3df668463e8916c4U, 0xbf0517a4be8a1245U, 0xbe48fe83bf85f649U,
  0xbe68eaabbe40eb46U, 0xbe564584bf00b1f9U, 0xbebb63533f2cc37cU, 0x3f00a867bdd23d2bU,
  0xbf1ab2033e34e753U, 0x3e078fa03d84c2d3U, 0x3efdfc473e42f8edU, 0x3e0e5e99bd95cc43U,
  0x3e2fa9d5bc524127U, 0xbf1a3342bf2c0d28U, 0xbdb7994abf83e481U, 0x3e53a012bf2febf0U,
  0xbf7181ce3efd9ccfU, 0x3e34b8f3be712dc7U, 0x3e0a8cda3c8ca7ddU, 0x3db10d7b3e37a4c6U,
  0x3df3d2b2bebf5c17U, 0x3e057d033e966202U, 0xbf4252b83e73eac2U, 0x3f3b76b9bdad376fU,
  0xbe5c213d3e860d20U, 0x3f0432c43ecf11d4U, 0xbdbb5f893f5cba08U, 0xbe95fb3d3d90b21fU,
  0x3e585132be828f63U, 0x3e0a4c4dbe5bf106U, 0xbd46fea9be0913a6U, 0x3c59b7903dc4377cU,
  0x3d89b2483ed16650U, 0x3f003cdd3e83de53U, 0xbb33cb833e815579U, 0xbfcd3a80bf7d0d65U,
  0xbf5d8bd8be1de8e3U, 0xbd9d203fbe9fb554U, 0xbe5e06243e04090dU, 0xbf1be0293c915e39U,
  0xbe01a26b3e21d78eU, 0x3e801833be56d976U, 0x3e7a2fa03e72cdd3U, 0x3d89db7c3df6248aU,
  0xc00058f73f1188a9U, 0xbe9f0e64bd2b68e6U, 0xbead3cb53e52e562U, 0xbe7f3f593a9b3400U,
  0x3e60042c3eca6da3U, 0x3da98e9dbf437fcdU, 0xbac191573f3d0d81U, 0x3dcc929fbe41d37fU,
  0xbf902df4bf6b9f12U, 0xbc801874be7f6e3bU, 0xbd1817513e134e05U, 0xbf063487bf840483U,
  0x3eaa13d13e1334cdU, 0x3e0f62913e9cd864U, 0xbe544db43e322226U, 0xbecb04e7bfbca8d7U,
  0xbf499c4b3e8432e7U, 0x3da6d392bd17ba49U, 0x3f188e76bf3724a0U, 0xbdd273c2bf33451bU,
  0xbee909353d7861bbU, 0x3e5a80483e01a741U, 0xbf6ff515bf1b7687U, 0xbfe26480bf02c59aU,
  0xb89bcb78bf834c8bU, 0xbcf5d73bbef7767fU, 0xbef9def1bf484689U, 0x3f01b3f1bf4dc7d1U,
  0x3daef9673de7a0f5U, 0xbe9c67fa3d8048f7U, 0x3e313eecbeb85c74U, 0x3d6b657ebdd94b02U,
  0xbf188d723e74e370U, 0xbf1d5e00bf62f9b6U, 0xbe56896fbf0c3ea6U, 0xbe52e4afbe97a84dU,
  0xbf711b433dc3b19cU, 0x3e1972e23d7e77e4U, 0x3d4f846a3ce26bbbU, 0xbf31f30bbf68829eU,
  0xbe83c7fdbea30a35U, 0xbfa70a9dbe818b4fU, 0xbd7a9b11bf9b2000U, 0xbff8a845be5bbe95U,
  0x3dce6b7a3cc4076bU, 0xbe3bd956bc308abfU, 0x3cb1a987bf407e8cU, 0x3d31382e3c1420efU,
  0x3e03ffa73d08f238U, 0x3e190f7abfb9ffb4U, 0x3b8a65edbdb455baU, 0xbdd0b8fbbd07ff5eU,
  0xbe8eca15bf08dfd6U, 0xbf59d19f3db4f1eaU, 0xbb52a74ebc5c6fbeU, 0x3d9c6167be1d4bedU,
  0x3d0c292fbd21ee8cU, 0x3c9efa82bbc7920cU, 0xbb52e241bf0ad9d8U, 0xbe84b7cfbdfadf96U,
  0x3db8e731be260468U, 0xbd2c2db4bde66ccaU, 0x3e1ec5b2bfd1211eU, 0xbfe6b4f0bfd2522dU,
  0x3db57f1cbf5da6b3U, 0xbc0dceebbf05bd78U, 0x3c948e653e015964U, 0xbd9618c93df0cebaU,
  0xbe1061dd3e711201U, 0xbebf70e1bea5b908U, 0xbe72b5edbf012352U, 0xbc576a07bc6f26a8U,
  0xbe9f2ed7be950247U, 0x3dddacb9be1d81e5U, 0xbe2242e23d2fa14eU, 0x3d08e2bf3d1eccd0U,
  0x3e19f9f7bd71a521U, 0x3d5ab1833c0aad1cU, 0xbe97714dbc88c1dfU, 0xbe2203143e8bb438U,
  0xbe364ffa3d52a62eU, 0xbed172efbbb0ab8aU, 0x3e06b6aabd8b19bfU, 0x3e2c397f3e9767adU,
  0x3dad22be3c91de45U, 0x3e0a959f3b035515U, 0x3e8837d23e782b58U, 0x3d9173753dba2bdbU,
  0x3e15e01c3d302e3fU, 0x3e0ff73fbdae2029U, 0x3e0b56b9bde41598U, 0xbd0501d3bd1eb21dU,
  0x3dc54c49bd9f1b10U, 0x3d66309bbdc24adcU, 0x3b2344fc3dd657a2U, 0x3e392363beedd1d5U,
  0x3d9adfd4bd8e9a5aU, 0xbea014223dd761bfU, 0xba405ab8be0d7f66U, 0x3dc50be3bd55c0aeU,
  0x3d89eee53df8fc45U, 0xbcd824fa3e55b6a8U, 0xbdb51b113e6030daU, 0xbd8d453a3e91c055U,
  0x3d419ca5bd7f9e3bU, 0x3d62224ebe99d47bU, 0xbdd1dc8fbd3006b5U, 0xbe3b67a0be031707U,
  0xbe3d580abe89696dU, 0xbe0ad6953dee42abU, 0x3dd8cdde3dae937fU, 0x3d423fd1be4922edU,
  0xbe725af6be08b738U, 0xbd6138e23cf40525U, 0xbdf4e4a23e47a2b3U, 0x3e612370bead124dU,
  0xbd2572123d38805aU, 0xbdb8aa65be59e8a1U, 0x3e38e982bdbe17fbU, 0x3dc7fa3d3c91203eU,
  0x3eb76800bba98096U, 0x3d5a0e9b3dc812fbU, 0xbe8618eabea8b575U, 0xbe8e75c13dba8cc8U,
  0x3dcdb2acbe9b4fa3U, 0x3e4f5eb73e8060f3U, 0x3e07123a3d9e9d37U, 0x3e8b67f53d1b76edU,
  0xbe80d5e13dcd584dU, 0x3dd9d1c83e684837U, 0xbd0a76f1bed87a40U, 0xbd6cb5453d84ce4dU,
  0x3e0aebf23cbb5480U, 0xbddd5615be5dbae5U, 0x3d97ece93dfe48f8U, 0x3e8b22c93d83c609U,
  0x3e18eb743edffd5eU, 0xbec7b3d3be6fb1f6U, 0xbe64ae11bd111471U, 0x3da0596a3d12fb7dU,
  0x3dbfb66cbe658e36U, 0xbcb90f30bdb4470aU, 0xbe80b8553c10dd7fU, 0xbdc1e9443c57ac68U,
  0x3dd06b613dc17522U, 0xbd78f145be2e6460U, 0xbea86645be122f51U, 0xbe4819be3c3e37f1U,
  0xbf31ec8cbb77912bU, 0xbe9ac5303ed1dbe9U, 0x3e354338bdd4959cU, 0xbf3325ccbefa13fbU,
  0x3e5a15e33d0e86e1U, 0xbd9160aa3d468d99U, 0x3efeab7d3e9f95c0U, 0x3de130f73ec19ec7U,
  0x3f0f03193e987ac2U, 0xbd4945fb3c724e9aU, 0x3c6537a83d19693bU, 0x3dd56e46bf6fdcf7U,
  0x3dfcb684bde999e5U, 0x3e5561b5bd8e49f5U, 0x3cc7c03abe672a2dU, 0xbdc72e27bc5ba634U,
  0xbeb716d5bf03f359U, 0x3e6eff8fbe861b68U, 0x3da6d390bf97722fU, 0x3d946ee33ea1c979U,
  0xbeef42bc3e7ee6f8U, 0x3e33680b3cc9caa9U, 0x3e8f04bf3e8ef8d5U, 0xbe02d5e13d2a28f1U,
  0xbd4a2db4beddb24aU, 0xbf1f9f2cbf39569fU, 0xbe01099abed67b64U, 0xbf00aff0be894c58U,
  0xbea948e9bf30fa67U, 0xbe1d17633dc2434dU, 0xbdf9c3c0bd66253fU, 0xbf27c8f93ef4680cU,
  0xbd33c2ecbd993434U, 0x3ec326a83e9da780U, 0x3ddb5554bc9b5444U, 0x3c97d5723e013535U,
  0xbf55ffbd3eb5989cU, 0x3def21d6be98d95dU, 0x3cdf6f70be33ac60U, 0x3e852f33bdd39a33U,
  0xbeb5f7e53d87259eU, 0x3eaf671dbf1957eaU, 0x3ef1f44fbdac55e1U, 0xbea6a7703dc79db9U,
  0xbe53a7d53e298d86U, 0x3cd0699abec4c713U, 0xbd87f1a13d1787d6U, 0x3ea5731d3cd9e808U,
  0xbf08721dbd26ac14U, 0x3e38a9633de2dd76U, 0xbec4af91bd67d29fU, 0xbf208c8c3e7bf12aU,
  0x3e1578883e91cc4aU, 0x3da84e523daeffb2U, 0x3f6c2edebebd4171U, 0xbe311c48bd11b8c3U,
  0xbe2fc2f83e1a3bcfU, 0xbd31ff7f3ec4a81eU, 0x3e6d04f4be7ac7feU, 0x3f1649673daf40c0U,
  0x3da5cb58bd3af83dU, 0xbde46bc63dc59d56U, 0xbe0ec44b3e67fdfdU, 0xbefa7e1f3e32f4f4U,
  0xbe825298be136925U, 0x3db4e735be4eb3acU, 0x39d87f33bddecc3eU, 0xbdfe928d3e3d25e7U,
  0xbe618b12be0ff179U, 0x3cfbd3cc3eab6e1dU, 0xbe3fdfcabd47f299U, 0xbe2a3b523f4a547dU,
  0x3e6e5907bd419c0dU, 0x3ee65338bdf2956eU, 0x3edd8ecebe4afa1cU, 0xbe849c36bd917ff1U,
  0x3ea642153ee42295U, 0x3e974e2c3f061b40U, 0x3e84ee52bde53bf0U, 0x3ee91e083c97f6c2U,
  0x3ebd4587be4ec74fU, 0x3c39b24ebf3951f5U, 0xbdeb89bd3e95d937U, 0xbd356bf1be688499U,
  0xbd5393de3eab4c0bU, 0xbef50144becf13faU, 0xbe21e170bd76cb77U, 0x3d8f6c0ebd9ffbdbU,
  0x3d1dd64c3ebaa7cdU, 0xbd7c58b3bf084b8fU, 0xbf4c6d043e422be5U, 0x3ebd2a5f3dae37e2U,
  0x3e61ceac3e7619c6U, 0x3e2d43e93dd8a927U, 0x3eb2e4333eb7df7fU, 0x3e6118403db92c45U,
  0x3f16fc2cbea98dbfU, 0x3d4892993ddda6acU, 0xbf7db4e33f322b66U, 0xbea898f03dbcdb32U,
  0xbf4fc3603e2dd0d9U, 0xbe6624123d9b2a2fU, 0x3ce3990c3eb45569U, 0xbe2aaa463e7dfcc6U,
  0x3ec3afa13e7f0205U, 0x3e1491f9bea4c457U, 0xbe493e3cbdeb826bU, 0xbf28debebdd5f7ecU,
  0xbdafdd043cb76f76U, 0xbee8c6d6beaa0101U, 0x3ec7d5dabe08c4cdU, 0xbe607d96bd2b03f8U,
  0xbf1903a7bd14828eU, 0x3d2ecf6f3ea94350U, 0x3e1f1c443ed11affU, 0xbfb3bdd33cb73371U,
  0xbf8278603ee508efU, 0xbdd0b223bf19c193U, 0xbddaa380be14862cU, 0xbf777176bdb77729U,
  0x3e582fe33e2bfc20U, 0x3df8d7863d354778U, 0xbe82723dbf2df669U, 0xbb0807a73ecef33aU,
  0x3e4061eebe4c2e90U, 0x3f162f163ee44b9dU, 0xbf635439be08dd27U, 0xbf2be3833f1144bbU,
  0xbd1becc23e509f83U, 0xbe08fc40bef35795U, 0x3ce05ace3eab2044U, 0xbe8f2ffc3d8906a7U,
  0xbd83b3303d9f11ddU, 0x3d68f0abbd23807cU, 0x3e0726abbefbb715U, 0xbf52cfe4bf3edaabU,
  0x3e7483973eda4ebeU, 0xbdb4fef73dabd54bU, 0x3de0c85a3eaf499bU, 0xbe8e6508be617129U,
  0xbe577e973d0a10eaU, 0xbd5b62f8be071124U, 0x3e3d006e3edcf244U, 0x3e1600673d6bac53U,
  0x3df51f20bedaaaa6U, 0x3f46d10dbed1a9d7U, 0x3e0d90063ea8664cU, 0xbe50345bbd4a0a4fU,
  0xbf83e4323c8e9b5dU, 0x3f0c9a08beaac9e8U, 0xbf871142bf0fd570U, 0xbb9c8760bf810e9bU,
  0x3d8b58e7bfdce3a6U, 0xbbb874fa3e989ad0U, 0xbd1182b33d0be2e3U, 0xbdbdae30bfbb3fb5U,
  0xbee424eebd4df15aU, 0x3dd2877bbcec1c58U, 0x3b46554abdc078dfU, 0xbd4435a63e1f7760U,
  0x3cc0f0a7bf0b1875U, 0xbefcd5a33ec53a88U, 0xbed810d2bd779aa1U, 0xbe8359b83e17a3f5U,
  0xbdf4c18abf21be7aU, 0xbd454c173ec9379dU, 0x3d2b810a3e83137bU, 0x3e9374563e07c8ffU,
  0xbe28718dbe7013b5U, 0x3c965285beba7c5cU, 0x3ebd2064bf57b445U, 0xbf145b403e629407U,
  0xbe2f2442bdb08fb8U, 0xbe24b1adbf0a805fU, 0x3cae10efbe379d37U, 0xbf1af1353ee65485U,
  0xbc2f3daa3e90f88eU, 0xbdf923ab3dc10a0fU, 0x3db8adf8bec606f3U, 0x3e828e0bbef37182U,
  0xbf1dd0803eba4ab7U, 0x3e8be685be6d236bU, 0xbf53b3363e412c08U, 0x3d95e2a73e789ce6U,
  0xbee4e215bf862d6bU, 0x3ee815883e7d740fU, 0xbf4ee9353ed90169U, 0xbf6fa2133eb5c909U,
  0x3d1f39f13db9756eU, 0xbf1dc619bf8cefdeU, 0xbe822c123cfa85afU, 0x3e87ad103edd3cceU,
  0xbec47049bdd1392bU, 0x3d6295bebf0f0b2eU, 0xbf056102bea2b843U, 0xbcd2a4d13d3d12b6U,
  0xbe2d764f3e57cab7U, 0x3e83c6b2bd476009U, 0xbd3d43bbbf43ffd7U, 0xba85e1903ea85ab5U,
  0x3ec62ba5beed1bd7U, 0xbf845ee3be7528f8U, 0xbf4426033cf9f8deU, 0x3e094b813f2fc4cfU,
  0xbc3e30a9bde520fbU, 0xbee6558dbe85d8f9U, 0xbecfebbbbe9492dcU, 0xbf1a834c3e1446eeU,
  0x3d5447c7bf03e343U, 0xbf8ee2383e9e8582U, 0x3e0619dfbe1ccdfeU, 0x3ca2a68d3d3e6b48U,
  0xbe86f5253e8b1438U, 0xbdd2bbc9bf0c42d8U, 0x3ec5d1af3ea3774dU, 0xbe44aee4bf5be537U,
  0x3c9221aabe9988e9U, 0xbf036f233e9ada5bU, 0x3ed55e8b3d39ea5eU, 0x3d9ccf5fbe8cff07U,
  0x3ea62dc23bdffb05U, 0xbf4c36223e18ecd8U, 0xbea1dc0a3db33863U, 0xbef9e65abe1f71b4U,
  0xbcdff708bf163cfaU, 0x3eaa1b01bd38b82cU, 0x3e5443b33e6cb823U, 0x3dca0621bda5acb1U,
  0xbeb597ee3e2d1673U, 0x3e14e9a93ecab9f4U, 0xbf3671353dcc21c6U, 0xbe0a7621bee73907U,
